{
  "version": "1.0",
  "truncation": null,
  "padding": null,
  "added_tokens": [
    {
      "id": 0,
      "content": "[UNK]",
      "single_word": false,
      "lstrip": false,
      "rstrip": false,
      "normalized": false,
      "special": true
    },
    {
      "id": 1,
      "content": "[PAD]",
      "single_word": false,
      "lstrip": false,
      "rstrip": false,
      "normalized": false,
      "special": true
    },
    {
      "id": 2,
      "content": "[SEP]",
      "single_word": false,
      "lstrip": false,
      "rstrip": false,
      "normalized": false,
      "special": true
    }
  ],
  "normalizer": null,
  "pre_tokenizer": {
    "type": "Whitespace"
  },
  "post_processor": null,
  "decoder": null,
  "model": {
    "type": "BPE",
    "dropout": null,
    "unk_token": "[UNK]",
    "continuing_subword_prefix": null,
    "end_of_word_suffix": null,
    "fuse_unk": false,
    "byte_fallback": false,
    "ignore_merges": false,
    "vocab": {
      "[UNK]": 0,
      "[PAD]": 1,
      "[SEP]": 2,
      "!": 3,
      "\"": 4,
      "'": 5,
      ",": 6,
      "-": 7,
      ".": 8,
      "0": 9,
      "1": 10,
      "2": 11,
      "3": 12,
      "4": 13,
      "5": 14,
      "6": 15,
      "7": 16,
      "8": 17,
      "9": 18,
      "?": 19,
      "a": 20,
      "b": 21,
      "c": 22,
      "d": 23,
      "e": 24,
      "f": 25,
      "g": 26,
      "h": 27,
      "i": 28,
      "j": 29,
      "k": 30,
      "l": 31,
      "m": 32,
      "n": 33,
      "o": 34,
      "p": 35,
      "q": 36,
      "r": 37,
      "s": 38,
      "t": 39,
      "u": 40,
      "v": 41,
      "w": 42,
      "x": 43,
      "y": 44,
      "z": 45,
      "th": 46,
      "in": 47,
      "the": 48,
      "an": 49,
      "at": 50,
      "re": 51,
      "ou": 52,
      "is": 53,
      "on": 54,
      "it": 55,
      "er": 56,
      "ing": 57,
      "al": 58,
      "and": 59,
      "to": 60,
      "en": 61,
      "you": 62,
      "of": 63,
      "that": 64,
      "st": 65,
      "or": 66,
      "le": 67,
      "no": 68,
      "me": 69,
      "so": 70,
      "se": 71,
      "ar": 72,
      "li": 73,
      "wh": 74,
      "be": 75,
      "ve": 76,
      "as": 77,
      "ke": 78,
      "ly": 79,
      "we": 80,
      "ic": 81,
      "ha": 82,
      "es": 83,
      "do": 84,
      "ion": 85,
      "are": 86,
      "not": 87,
      "ay": 88,
      "ut": 89,
      "ac": 90,
      "ro": 91,
      "like": 92,
      "ed": 93,
      "ld": 94,
      "ver": 95,
      "lo": 96,
      "ab": 97,
      "co": 98,
      "de": 99,
      "ent": 100,
      "gh": 101,
      "have": 102,
      "wi": 103,
      "ll": 104,
      "out": 105,
      "ch": 106,
      "now": 107,
      "pe": 108,
      "for": 109,
      "thing": 110,
      "if": 111,
      "but": 112,
      "go": 113,
      "ri": 114,
      "ally": 115,
      "this": 116,
      "there": 117,
      "what": 118,
      "he": 119,
      "am": 120,
      "ge": 121,
      "mo": 122,
      "un": 123,
      "thin": 124,
      "ple": 125,
      "think": 126,
      "they": 127,
      "some": 128,
      "know": 129,
      "ght": 130,
      "ould": 131,
      "was": 132,
      "fe": 133,
      "ust": 134,
      "ca": 135,
      "ce": 136,
      "te": 137,
      "one": 138,
      "can": 139,
      "ti": 140,
      "just": 141,
      "ne": 142,
      "use": 143,
      "all": 144,
      "ho": 145,
      "po": 146,
      "con": 147,
      "about": 148,
      "ind": 149,
      "with": 150,
      "id": 151,
      "ation": 152,
      "pro": 153,
      "us": 154,
      "tr": 155,
      "wor": 156,
      "ma": 157,
      "ter": 158,
      "ex": 159,
      "per": 160,
      "um": 161,
      "ul": 162,
      "ye": 163,
      "very": 164,
      "com": 165,
      "ct": 166,
      "ad": 167,
      "ople": 168,
      "people": 169,
      "ir": 170,
      "act": 171,
      "im": 172,
      "ther": 173,
      "way": 174,
      "su": 175,
      "cause": 176,
      "ok": 177,
      "ant": 178,
      "art": 179,
      "ci": 180,
      "bo": 181,
      "how": 182,
      "because": 183,
      "qu": 184,
      "right": 185,
      "would": 186,
      "ate": 187,
      "ain": 188,
      "kind": 189,
      "si": 190,
      "get": 191,
      "our": 192,
      "then": 193,
      "my": 194,
      "ah": 195,
      "ur": 196,
      "ity": 197,
      "mean": 198,
      "your": 199,
      "say": 200,
      "any": 201,
      "yeah": 202,
      "il": 203,
      "em": 204,
      "really": 205,
      "pl": 206,
      "ess": 207,
      "whe": 208,
      "rom": 209,
      "ist": 210,
      "will": 211,
      "time": 212,
      "ort": 213,
      "res": 214,
      "when": 215,
      "things": 216,
      "from": 217,
      "pp": 218,
      "other": 219,
      "sa": 220,
      "ment": 221,
      "ren": 222,
      "more": 223,
      "ev": 224,
      "oun": 225,
      "who": 226,
      "ich": 227,
      "up": 228,
      "ive": 229,
      "der": 230,
      "ig": 231,
      "where": 232,
      "king": 233,
      "them": 234,
      "ous": 235,
      "ble": 236,
      "which": 237,
      "ph": 238,
      "ag": 239,
      "well": 240,
      "ine": 241,
      "od": 242,
      "ure": 243,
      "ence": 244,
      "vi": 245,
      "something": 246,
      "lot": 247,
      "sh": 248,
      "these": 249,
      "hum": 250,
      "ol": 251,
      "inte": 252,
      "ually": 253,
      "end": 254,
      "ta": 255,
      "could": 256,
      "dif": 257,
      "gr": 258,
      "human": 259,
      "ard": 260,
      "by": 261,
      "sy": 262,
      "able": 263,
      "sp": 264,
      "el": 265,
      "na": 266,
      "put": 267,
      "going": 268,
      "tal": 269,
      "make": 270,
      "every": 271,
      "ack": 272,
      "work": 273,
      "red": 274,
      "ough": 275,
      "feren": 276,
      "ach": 277,
      "look": 278,
      "ical": 279,
      "had": 280,
      "want": 281,
      "part": 282,
      "world": 283,
      "gu": 284,
      "may": 285,
      "see": 286,
      "actually": 287,
      "did": 288,
      "were": 289,
      "try": 290,
      "ose": 291,
      "has": 292,
      "dy": 293,
      "ty": 294,
      "ong": 295,
      "differen": 296,
      "ace": 297,
      "lear": 298,
      "does": 299,
      "ions": 300,
      "come": 301,
      "most": 302,
      "iz": 303,
      "good": 304,
      "ide": 305,
      "str": 306,
      "ound": 307,
      "reat": 308,
      "sel": 309,
      "ers": 310,
      "lit": 311,
      "ry": 312,
      "est": 313,
      "those": 314,
      "ep": 315,
      "int": 316,
      "mu": 317,
      "ight": 318,
      "wn": 319,
      "ast": 320,
      "rest": 321,
      "di": 322,
      "ars": 323,
      "spe": 324,
      "than": 325,
      "under": 326,
      "sci": 327,
      "even": 328,
      "les": 329,
      "much": 330,
      "br": 331,
      "ill": 332,
      "also": 333,
      "life": 334,
      "ite": 335,
      "stu": 336,
      "different": 337,
      "into": 338,
      "fo": 339,
      "ving": 340,
      "bet": 341,
      "stem": 342,
      "maybe": 343,
      "let": 344,
      "ff": 345,
      "pt": 346,
      "tw": 347,
      "sort": 348,
      "happ": 349,
      "ree": 350,
      "ics": 351,
      "his": 352,
      "system": 353,
      "stand": 354,
      "ms": 355,
      "ning": 356,
      "being": 357,
      "gen": 358,
      "bu": 359,
      "ies": 360,
      "ically": 361,
      "ra": 362,
      "back": 363,
      "log": 364,
      "led": 365,
      "their": 366,
      "ans": 367,
      "ful": 368,
      "got": 369,
      "day": 370,
      "pos": 371,
      "ting": 372,
      "self": 373,
      "dis": 374,
      "been": 375,
      "quest": 376,
      "bit": 377,
      "fun": 378,
      "start": 379,
      "ob": 380,
      "ck": 381,
      "son": 382,
      "wer": 383,
      "tle": 384,
      "body": 385,
      "ber": 386,
      "vers": 387,
      "need": 388,
      "interest": 389,
      "take": 390,
      "pre": 391,
      "chan": 392,
      "ts": 393,
      "cal": 394,
      "ways": 395,
      "happen": 396,
      "why": 397,
      "fir": 398,
      "form": 399,
      "doing": 400,
      "real": 401,
      "pr": 402,
      "over": 403,
      "said": 404,
      "ys": 405,
      "om": 406,
      "age": 407,
      "sen": 408,
      "ice": 409,
      "inter": 410,
      "imp": 411,
      "first": 412,
      "okay": 413,
      "feel": 414,
      "op": 415,
      "many": 416,
      "ap": 417,
      "little": 418,
      "sto": 419,
      "ever": 420,
      "proble": 421,
      "understand": 422,
      "here": 423,
      "gon": 424,
      "big": 425,
      "gonna": 426,
      "bas": 427,
      "rough": 428,
      "cess": 429,
      "comp": 430,
      "ated": 431,
      "des": 432,
      "read": 433,
      "new": 434,
      "should": 435,
      "ked": 436,
      "ction": 437,
      "cer": 438,
      "two": 439,
      "exper": 440,
      "lli": 441,
      "person": 442,
      "cl": 443,
      "love": 444,
      "tive": 445,
      "same": 446,
      "low": 447,
      "comm": 448,
      "through": 449,
      "wr": 450,
      "point": 451,
      "ue": 452,
      "years": 453,
      "sed": 454,
      "question": 455,
      "ating": 456,
      "cre": 457,
      "ild": 458,
      "ations": 459,
      "interesting": 460,
      "ual": 461,
      "fin": 462,
      "pres": 463,
      "lic": 464,
      "sol": 465,
      "comput": 466,
      "je": 467,
      "tain": 468,
      "man": 469,
      "cannot": 470,
      "oh": 471,
      "00": 472,
      "icul": 473,
      "ie": 474,
      "mar": 475,
      "mat": 476,
      "bab": 477,
      "ition": 478,
      "sense": 479,
      "vel": 480,
      "great": 481,
      "idea": 482,
      "stuff": 483,
      "cent": 484,
      "again": 485,
      "still": 486,
      "ought": 487,
      "ces": 488,
      "cont": 489,
      "hard": 490,
      "ass": 491,
      "talk": 492,
      "ance": 493,
      "long": 494,
      "might": 495,
      "enti": 496,
      "better": 497,
      "side": 498,
      "down": 499,
      "ga": 500,
      "la": 501,
      "probab": 502,
      "play": 503,
      "gener": 504,
      "hi": 505,
      "eng": 506,
      "yes": 507,
      "give": 508,
      "ctive": 509,
      "ves": 510,
      "possi": 511,
      "pa": 512,
      "phys": 513,
      "only": 514,
      "him": 515,
      "fore": 516,
      "uni": 517,
      "tech": 518,
      "ten": 519,
      "off": 520,
      "ef": 521,
      "sim": 522,
      "trying": 523,
      "ons": 524,
      "certain": 525,
      "doesn": 526,
      "problem": 527,
      "cho": 528,
      "didn": 529,
      "et": 530,
      "intelli": 531,
      "ser": 532,
      "ness": 533,
      "af": 534,
      "ear": 535,
      "build": 536,
      "intellig": 537,
      "times": 538,
      "ai": 539,
      "ary": 540,
      "ility": 541,
      "gn": 542,
      "book": 543,
      "cur": 544,
      "min": 545,
      "iv": 546,
      "ip": 547,
      "basically": 548,
      "ism": 549,
      "power": 550,
      "ory": 551,
      "too": 552,
      "..": 553,
      "ses": 554,
      "learning": 555,
      "probably": 556,
      "dat": 557,
      "beli": 558,
      "soci": 559,
      "cr": 560,
      "cor": 561,
      "space": 562,
      "ish": 563,
      "reas": 564,
      "mind": 565,
      "ask": 566,
      "logy": 567,
      "find": 568,
      "around": 569,
      "always": 570,
      "av": 571,
      "du": 572,
      "ick": 573,
      "thought": 574,
      "tor": 575,
      "ger": 576,
      "stru": 577,
      "aut": 578,
      "sure": 579,
      "data": 580,
      "talking": 581,
      "its": 582,
      "ak": 583,
      "level": 584,
      "ample": 585,
      "tur": 586,
      "uh": 587,
      "xt": 588,
      "net": 589,
      "num": 590,
      "she": 591,
      "ific": 592,
      "everything": 593,
      "tell": 594,
      "arch": 595,
      "saying": 596,
      "less": 597,
      "ents": 598,
      "brain": 599,
      "ari": 600,
      "fact": 601,
      "ict": 602,
      "bl": 603,
      "mem": 604,
      "comple": 605,
      "sm": 606,
      "experi": 607,
      "example": 608,
      "val": 609,
      "vie": 610,
      "mag": 611,
      "inst": 612,
      "set": 613,
      "au": 614,
      "app": 615,
      "vis": 616,
      "never": 617,
      "del": 618,
      "ize": 619,
      "coun": 620,
      "pret": 621,
      "cour": 622,
      "mone": 623,
      "high": 624,
      "whole": 625,
      "whatever": 626,
      "learn": 627,
      "nat": 628,
      "cri": 629,
      "import": 630,
      "cept": 631,
      "seem": 632,
      "rel": 633,
      "sion": 634,
      "own": 635,
      "ps": 636,
      "another": 637,
      "creat": 638,
      "eve": 639,
      "row": 640,
      "tri": 641,
      "mach": 642,
      "tim": 643,
      "possible": 644,
      "humans": 645,
      "before": 646,
      "important": 647,
      "pect": 648,
      "money": 649,
      "jo": 650,
      "science": 651,
      "sur": 652,
      "sing": 653,
      "mes": 654,
      "reason": 655,
      "commun": 656,
      "bi": 657,
      "done": 658,
      "pu": 659,
      "consci": 660,
      "intelligence": 661,
      "model": 662,
      "ru": 663,
      "conscious": 664,
      "ideas": 665,
      "ution": 666,
      "run": 667,
      "thinking": 668,
      "care": 669,
      "hel": 670,
      "plan": 671,
      "vir": 672,
      "ates": 673,
      "pri": 674,
      "gram": 675,
      "ative": 676,
      "illi": 677,
      "col": 678,
      "20": 679,
      "ved": 680,
      "ween": 681,
      "between": 682,
      "verse": 683,
      "convers": 684,
      "deep": 685,
      "ds": 686,
      "ject": 687,
      "called": 688,
      "dri": 689,
      "ise": 690,
      "comes": 691,
      "believe": 692,
      "lan": 693,
      "made": 694,
      "cy": 695,
      "used": 696,
      "ial": 697,
      "war": 698,
      "ward": 699,
      "program": 700,
      "robo": 701,
      "car": 702,
      "beaut": 703,
      "fect": 704,
      "ists": 705,
      "tory": 706,
      "ks": 707,
      "fa": 708,
      "ven": 709,
      "med": 710,
      "course": 711,
      "exact": 712,
      "pretty": 713,
      "view": 714,
      "ities": 715,
      "each": 716,
      "produ": 717,
      "ba": 718,
      "terms": 719,
      "three": 720,
      "par": 721,
      "fr": 722,
      "exp": 723,
      "cast": 724,
      "anything": 725,
      "sit": 726,
      "dam": 727,
      "having": 728,
      "enough": 729,
      "best": 730,
      "getting": 731,
      "number": 732,
      "10": 733,
      "list": 734,
      "fri": 735,
      "works": 736,
      "techno": 737,
      "almost": 738,
      "als": 739,
      "ors": 740,
      "fig": 741,
      "langu": 742,
      "experience": 743,
      "both": 744,
      "came": 745,
      "call": 746,
      "pod": 747,
      "super": 748,
      "process": 749,
      "cus": 750,
      "top": 751,
      "conne": 752,
      "ering": 753,
      "trans": 754,
      "universe": 755,
      "mon": 756,
      "help": 757,
      "wat": 758,
      "makes": 759,
      "systems": 760,
      "mis": 761,
      "mit": 762,
      "hope": 763,
      "defin": 764,
      "few": 765,
      "formation": 766,
      "ele": 767,
      "cul": 768,
      "place": 769,
      "conversation": 770,
      "kinds": 771,
      "turn": 772,
      "exactly": 773,
      "podcast": 774,
      "show": 775,
      "looking": 776,
      "search": 777,
      "tra": 778,
      "toge": 779,
      "together": 780,
      "after": 781,
      "uc": 782,
      "ship": 783,
      "machine": 784,
      "eas": 785,
      "engine": 786,
      "ously": 787,
      "struct": 788,
      "free": 789,
      "somebody": 790,
      "theory": 791,
      "cond": 792,
      "imag": 793,
      "test": 794,
      "history": 795,
      "light": 796,
      "icular": 797,
      "cap": 798,
      "ural": 799,
      "ments": 800,
      "next": 801,
      "particular": 802,
      "else": 803,
      "ute": 804,
      "clo": 805,
      "coin": 806,
      "line": 807,
      "contro": 808,
      "general": 809,
      "ately": 810,
      "lead": 811,
      "seems": 812,
      "her": 813,
      "iful": 814,
      "computer": 815,
      "game": 816,
      "unch": 817,
      "vol": 818,
      "evol": 819,
      "open": 820,
      "cin": 821,
      "beautiful": 822,
      "information": 823,
      "lar": 824,
      "cred": 825,
      "gor": 826,
      "change": 827,
      "ized": 828,
      "whether": 829,
      "ends": 830,
      "away": 831,
      "making": 832,
      "ath": 833,
      "ile": 834,
      "ign": 835,
      "create": 836,
      "che": 837,
      "language": 838,
      "cha": 839,
      "keep": 840,
      "true": 841,
      "today": 842,
      "ability": 843,
      "small": 844,
      "amer": 845,
      "mention": 846,
      "sub": 847,
      "tru": 848,
      "iting": 849,
      "far": 850,
      "listen": 851,
      "scient": 852,
      "bad": 853,
      "bre": 854,
      "member": 855,
      "att": 856,
      "diff": 857,
      "ational": 858,
      "means": 859,
      "erg": 860,
      "gi": 861,
      "hu": 862,
      "velo": 863,
      "fut": 864,
      "physics": 865,
      "fl": 866,
      "least": 867,
      "sign": 868,
      "answer": 869,
      "wa": 870,
      "figure": 871,
      "rus": 872,
      "fundam": 873,
      "fundament": 874,
      "curren": 875,
      "rect": 876,
      "gan": 877,
      "story": 878,
      "started": 879,
      "guess": 880,
      "ures": 881,
      "exist": 882,
      "dec": 883,
      "action": 884,
      "quite": 885,
      "fas": 886,
      "wan": 887,
      "working": 888,
      "ready": 889,
      "face": 890,
      "fol": 891,
      "case": 892,
      "...": 893,
      "pport": 894,
      "difficul": 895,
      "ici": 896,
      "train": 897,
      "sometimes": 898,
      "coming": 899,
      "hand": 900,
      "guy": 901,
      "obvi": 902,
      "future": 903,
      "such": 904,
      "using": 905,
      "move": 906,
      "state": 907,
      "pred": 908,
      "soph": 909,
      "ama": 910,
      "consciousness": 911,
      "someone": 912,
      "ens": 913,
      "meaning": 914,
      "wanna": 915,
      "gover": 916,
      "remember": 917,
      "fi": 918,
      "develo": 919,
      "illion": 920,
      "went": 921,
      "ins": 922,
      "head": 923,
      "order": 924,
      "adv": 925,
      "fu": 926,
      "govern": 927,
      "ding": 928,
      "bio": 929,
      "yourself": 930,
      "cell": 931,
      "live": 932,
      "wrong": 933,
      "ced": 934,
      "goes": 935,
      "psy": 936,
      "itive": 937,
      "difficult": 938,
      "ilo": 939,
      "technology": 940,
      "once": 941,
      "ited": 942,
      "matter": 943,
      "dep": 944,
      "fight": 945,
      "russi": 946,
      "reg": 947,
      "complete": 948,
      "compe": 949,
      "cu": 950,
      "fam": 951,
      "sive": 952,
      "mus": 953,
      "ital": 954,
      "descri": 955,
      "robot": 956,
      "cra": 957,
      "sha": 958,
      "year": 959,
      "alth": 960,
      "control": 961,
      "themat": 962,
      "vide": 963,
      "equ": 964,
      "fascin": 965,
      "ros": 966,
      "present": 967,
      "says": 968,
      "ris": 969,
      "scal": 970,
      "ird": 971,
      "suc": 972,
      "ones": 973,
      "mic": 974,
      "ze": 975,
      "mathemat": 976,
      "cial": 977,
      "connect": 978,
      "become": 979,
      "ality": 980,
      "selves": 981,
      "without": 982,
      "everybody": 983,
      "ase": 984,
      "bro": 985,
      "step": 986,
      "social": 987,
      "old": 988,
      "earth": 989,
      "mechan": 990,
      "research": 991,
      "last": 992,
      "credi": 993,
      "expl": 994,
      "har": 995,
      "spective": 996,
      "dist": 997,
      "clear": 998,
      "develop": 999,
      "sk": 1000,
      "aren": 1001,
      "zing": 1002,
      "ang": 1003,
      "problems": 1004,
      "paper": 1005,
      "huge": 1006,
      "ident": 1007,
      "philo": 1008,
      "nature": 1009,
      "philosoph": 1010,
      "ft": 1011,
      "kid": 1012,
      "ster": 1013,
      "mentioned": 1014,
      "pon": 1015,
      "win": 1016,
      "colle": 1017,
      "ia": 1018,
      "already": 1019,
      "perspective": 1020,
      "chang": 1021,
      "ines": 1022,
      "ket": 1023,
      "cogn": 1024,
      "char": 1025,
      "often": 1026,
      "bri": 1027,
      "fort": 1028,
      "exc": 1029,
      "gets": 1030,
      "understanding": 1031,
      "cially": 1032,
      "indiv": 1033,
      "bitcoin": 1034,
      "americ": 1035,
      "individ": 1036,
      "moment": 1037,
      "incredi": 1038,
      "happens": 1039,
      "happened": 1040,
      "questions": 1041,
      "large": 1042,
      "wasn": 1043,
      "talked": 1044,
      "fast": 1045,
      "won": 1046,
      "ith": 1047,
      "value": 1048,
      "fascinating": 1049,
      "early": 1050,
      "fac": 1051,
      "five": 1052,
      "entially": 1053,
      "bunch": 1054,
      "found": 1055,
      "ext": 1056,
      "medi": 1057,
      "individual": 1058,
      "spec": 1059,
      "gra": 1060,
      "simple": 1061,
      "complex": 1062,
      "socie": 1063,
      "econ": 1064,
      "ago": 1065,
      "class": 1066,
      "watch": 1067,
      "cons": 1068,
      "pat": 1069,
      "tiv": 1070,
      "second": 1071,
      "ield": 1072,
      "ily": 1073,
      "iness": 1074,
      "joy": 1075,
      "reality": 1076,
      "espe": 1077,
      "especially": 1078,
      "job": 1079,
      "bring": 1080,
      "grou": 1081,
      "ash": 1082,
      "ress": 1083,
      "function": 1084,
      "respon": 1085,
      "hun": 1086,
      "ot": 1087,
      "algor": 1088,
      "based": 1089,
      "polit": 1090,
      "seen": 1091,
      "os": 1092,
      "chall": 1093,
      "god": 1094,
      "oper": 1095,
      "imagine": 1096,
      "algorith": 1097,
      "law": 1098,
      "add": 1099,
      "physical": 1100,
      "amoun": 1101,
      "wanted": 1102,
      "pot": 1103,
      "19": 1104,
      "posed": 1105,
      "appro": 1106,
      "yet": 1107,
      "four": 1108,
      "sho": 1109,
      "quant": 1110,
      "blo": 1111,
      "ner": 1112,
      "bly": 1113,
      "code": 1114,
      "pus": 1115,
      "wal": 1116,
      "hy": 1117,
      "ste": 1118,
      "aspect": 1119,
      "lex": 1120,
      "prof": 1121,
      "words": 1122,
      "field": 1123,
      "gre": 1124,
      "amazing": 1125,
      "den": 1126,
      "nothing": 1127,
      "optim": 1128,
      "knowled": 1129,
      "tom": 1130,
      "building": 1131,
      "dr": 1132,
      "ware": 1133,
      "istic": 1134,
      "logical": 1135,
      "term": 1136,
      "against": 1137,
      "experim": 1138,
      "fundamental": 1139,
      "ulation": 1140,
      "completely": 1141,
      "itself": 1142,
      "ular": 1143,
      "organ": 1144,
      "government": 1145,
      "decis": 1146,
      "everyone": 1147,
      "within": 1148,
      "disco": 1149,
      "write": 1150,
      "pay": 1151,
      "company": 1152,
      "knowledge": 1153,
      "ify": 1154,
      "somehow": 1155,
      "ential": 1156,
      "concept": 1157,
      "pub": 1158,
      "days": 1159,
      "scale": 1160,
      "agree": 1161,
      "hour": 1162,
      "others": 1163,
      "ling": 1164,
      "text": 1165,
      "wed": 1166,
      "ming": 1167,
      "vent": 1168,
      "mot": 1169,
      "vision": 1170,
      "suff": 1171,
      "society": 1172,
      "ization": 1173,
      "success": 1174,
      "youn": 1175,
      "mul": 1176,
      "design": 1177,
      "mp": 1178,
      "nice": 1179,
      "solve": 1180,
      "hit": 1181,
      "states": 1182,
      "acy": 1183,
      "vari": 1184,
      "allow": 1185,
      "leg": 1186,
      "predict": 1187,
      "requ": 1188,
      "mi": 1189,
      "inste": 1190,
      "cool": 1191,
      "liter": 1192,
      "path": 1193,
      "while": 1194,
      "word": 1195,
      "ream": 1196,
      "amount": 1197,
      "powerful": 1198,
      "nor": 1199,
      "cou": 1200,
      "absol": 1201,
      "obviously": 1202,
      "graph": 1203,
      "absolute": 1204,
      "lat": 1205,
      "grow": 1206,
      "fully": 1207,
      "though": 1208,
      "dan": 1209,
      "isn": 1210,
      "type": 1211,
      "bus": 1212,
      "energ": 1213,
      "current": 1214,
      "itely": 1215,
      "communic": 1216,
      "evolution": 1217,
      "break": 1218,
      "pie": 1219,
      "support": 1220,
      "py": 1221,
      "ken": 1222,
      "certainly": 1223,
      "ore": 1224,
      "sor": 1225,
      "wouldn": 1226,
      "000": 1227,
      "myself": 1228,
      "neural": 1229,
      "bal": 1230,
      "force": 1231,
      "follow": 1232,
      "public": 1233,
      "study": 1234,
      "took": 1235,
      "conf": 1236,
      "taking": 1237,
      "thank": 1238,
      "scho": 1239,
      "easy": 1240,
      "object": 1241,
      "fra": 1242,
      "ultim": 1243,
      "full": 1244,
      "structure": 1245,
      "og": 1246,
      "quick": 1247,
      "lea": 1248,
      "school": 1249,
      "lect": 1250,
      "entire": 1251,
      "feels": 1252,
      "ences": 1253,
      "single": 1254,
      "dom": 1255,
      "ries": 1256,
      "relation": 1257,
      "bor": 1258,
      "close": 1259,
      "quantum": 1260,
      "techn": 1261,
      "lt": 1262,
      "liz": 1263,
      "wards": 1264,
      "energy": 1265,
      "uring": 1266,
      "multi": 1267,
      "death": 1268,
      "speak": 1269,
      "event": 1270,
      "tool": 1271,
      "hold": 1272,
      "clu": 1273,
      "serv": 1274,
      "ju": 1275,
      "community": 1276,
      "couple": 1277,
      "pur": 1278,
      "aking": 1279,
      "vo": 1280,
      "dim": 1281,
      "push": 1282,
      "spir": 1283,
      "haps": 1284,
      "ross": 1285,
      "land": 1286,
      "perhaps": 1287,
      "pop": 1288,
      "definitely": 1289,
      "ton": 1290,
      "writ": 1291,
      "fer": 1292,
      "ither": 1293,
      "pi": 1294,
      "prote": 1295,
      "nam": 1296,
      "mal": 1297,
      "ctor": 1298,
      "dar": 1299,
      "necess": 1300,
      "explain": 1301,
      "compet": 1302,
      "engineering": 1303,
      "viron": 1304,
      "econom": 1305,
      "ince": 1306,
      "environ": 1307,
      "ption": 1308,
      "bility": 1309,
      "ny": 1310,
      "gest": 1311,
      "ben": 1312,
      "mor": 1313,
      "wonder": 1314,
      "cle": 1315,
      "feeling": 1316,
      "sc": 1317,
      "anal": 1318,
      "non": 1319,
      "team": 1320,
      "represent": 1321,
      "million": 1322,
      "issu": 1323,
      "iven": 1324,
      "deal": 1325,
      "gin": 1326,
      "haven": 1327,
      "situ": 1328,
      "crit": 1329,
      "takes": 1330,
      "enjoy": 1331,
      "compan": 1332,
      "proper": 1333,
      "ult": 1334,
      "happening": 1335,
      "ument": 1336,
      "wee": 1337,
      "gg": 1338,
      "fine": 1339,
      "ler": 1340,
      "weird": 1341,
      "contin": 1342,
      "absolutely": 1343,
      "young": 1344,
      "useful": 1345,
      "centr": 1346,
      "effect": 1347,
      "uro": 1348,
      "teach": 1349,
      "ground": 1350,
      "network": 1351,
      "pose": 1352,
      "actions": 1353,
      "given": 1354,
      "ters": 1355,
      "strong": 1356,
      "vid": 1357,
      "sound": 1358,
      "typ": 1359,
      "ero": 1360,
      "intelligent": 1361,
      "companies": 1362,
      "ator": 1363,
      "outside": 1364,
      "sup": 1365,
      "civi": 1366,
      "0s": 1367,
      "limit": 1368,
      "ali": 1369,
      "ilar": 1370,
      "tu": 1371,
      "relationship": 1372,
      "either": 1373,
      "versus": 1374,
      "aces": 1375,
      "correct": 1376,
      "incredible": 1377,
      "zy": 1378,
      "ending": 1379,
      "basic": 1380,
      "ths": 1381,
      "similar": 1382,
      "friends": 1383,
      "dig": 1384,
      "reli": 1385,
      "ump": 1386,
      "lay": 1387,
      "black": 1388,
      "country": 1389,
      "ake": 1390,
      "group": 1391,
      "child": 1392,
      "project": 1393,
      "arg": 1394,
      "orig": 1395,
      "health": 1396,
      "ices": 1397,
      "rand": 1398,
      "dest": 1399,
      "position": 1400,
      "cies": 1401,
      "emot": 1402,
      "oc": 1403,
      "ond": 1404,
      "main": 1405,
      "stud": 1406,
      "past": 1407,
      "requi": 1408,
      "meas": 1409,
      "prin": 1410,
      "room": 1411,
      "special": 1412,
      "hal": 1413,
      "ousand": 1414,
      "thousand": 1415,
      "anim": 1416,
      "dred": 1417,
      "key": 1418,
      "fall": 1419,
      "hundred": 1420,
      "approach": 1421,
      "lots": 1422,
      "friend": 1423,
      "describe": 1424,
      "knew": 1425,
      "pain": 1426,
      "sof": 1427,
      "artific": 1428,
      "short": 1429,
      "inve": 1430,
      "learned": 1431,
      "ultimately": 1432,
      "princi": 1433,
      "ilt": 1434,
      "essentially": 1435,
      "ban": 1436,
      "explo": 1437,
      "ious": 1438,
      "perfect": 1439,
      "later": 1440,
      "lling": 1441,
      "que": 1442,
      "tern": 1443,
      "air": 1444,
      "living": 1445,
      "environment": 1446,
      "idence": 1447,
      "cli": 1448,
      "cry": 1449,
      "difference": 1450,
      "intu": 1451,
      "ages": 1452,
      "books": 1453,
      "hear": 1454,
      "themselves": 1455,
      "100": 1456,
      "kids": 1457,
      "guys": 1458,
      "wo": 1459,
      "saw": 1460,
      "lab": 1461,
      "bers": 1462,
      "invol": 1463,
      "video": 1464,
      "bin": 1465,
      "principle": 1466,
      "running": 1467,
      "listening": 1468,
      "ier": 1469,
      "twit": 1470,
      "sour": 1471,
      "ture": 1472,
      "50": 1473,
      "vac": 1474,
      "arily": 1475,
      "lying": 1476,
      "univers": 1477,
      "artificial": 1478,
      "robots": 1479,
      "civiliz": 1480,
      "cks": 1481,
      "driving": 1482,
      "built": 1483,
      "product": 1484,
      "bar": 1485,
      "izing": 1486,
      "jor": 1487,
      "ature": 1488,
      "til": 1489,
      "gs": 1490,
      "ribut": 1491,
      "leep": 1492,
      "jour": 1493,
      "begin": 1494,
      "pris": 1495,
      "dream": 1496,
      "focus": 1497,
      "impact": 1498,
      "psycho": 1499,
      "actual": 1500,
      "incre": 1501,
      "ention": 1502,
      "safe": 1503,
      "training": 1504,
      "twitter": 1505,
      "until": 1506,
      "experiment": 1507,
      "planet": 1508,
      "infl": 1509,
      "hey": 1510,
      "smart": 1511,
      "chem": 1512,
      "prove": 1513,
      "trust": 1514,
      "playing": 1515,
      "cing": 1516,
      "extre": 1517,
      "cat": 1518,
      "likely": 1519,
      "illions": 1520,
      "dru": 1521,
      "market": 1522,
      "cir": 1523,
      "literally": 1524,
      "origin": 1525,
      "sequ": 1526,
      "icient": 1527,
      "home": 1528,
      "recent": 1529,
      "rote": 1530,
      "discus": 1531,
      "looks": 1532,
      "effe": 1533,
      "shit": 1534,
      "ury": 1535,
      "wrote": 1536,
      "tware": 1537,
      "realize": 1538,
      "mer": 1539,
      "night": 1540,
      "beha": 1541,
      "software": 1542,
      "behavi": 1543,
      "ched": 1544,
      "worked": 1545,
      "models": 1546,
      "pass": 1547,
      "ted": 1548,
      "inside": 1549,
      "becomes": 1550,
      "internet": 1551,
      "dra": 1552,
      "itions": 1553,
      "ink": 1554,
      "fron": 1555,
      "united": 1556,
      "natural": 1557,
      "kill": 1558,
      "mid": 1559,
      "ran": 1560,
      "ctr": 1561,
      "pract": 1562,
      "across": 1563,
      "partic": 1564,
      "name": 1565,
      "central": 1566,
      "nobody": 1567,
      "networks": 1568,
      "programming": 1569,
      "hours": 1570,
      "business": 1571,
      "context": 1572,
      "couldn": 1573,
      "funny": 1574,
      "half": 1575,
      "hor": 1576,
      "crazy": 1577,
      "acter": 1578,
      "created": 1579,
      "stop": 1580,
      "music": 1581,
      "ants": 1582,
      "truth": 1583,
      "extreme": 1584,
      "port": 1585,
      "ties": 1586,
      "felt": 1587,
      "invest": 1588,
      "writing": 1589,
      "ded": 1590,
      "licated": 1591,
      "family": 1592,
      "pict": 1593,
      "buy": 1594,
      "grad": 1595,
      "happy": 1596,
      "zero": 1597,
      "told": 1598,
      "left": 1599,
      "expres": 1600,
      "sleep": 1601,
      "needs": 1602,
      "russian": 1603,
      "auton": 1604,
      "ouse": 1605,
      "neur": 1606,
      "games": 1607,
      "since": 1608,
      "dynam": 1609,
      "valu": 1610,
      "dire": 1611,
      "goal": 1612,
      "electr": 1613,
      "towards": 1614,
      "interested": 1615,
      "die": 1616,
      "interact": 1617,
      "rules": 1618,
      "uses": 1619,
      "trad": 1620,
      "tract": 1621,
      "chess": 1622,
      "gives": 1623,
      "anyway": 1624,
      "prog": 1625,
      "creating": 1626,
      "direct": 1627,
      "common": 1628,
      "rad": 1629,
      "viol": 1630,
      "effective": 1631,
      "rich": 1632,
      "seeing": 1633,
      "along": 1634,
      "cost": 1635,
      "const": 1636,
      "count": 1637,
      "ional": 1638,
      "complicated": 1639,
      "recogn": 1640,
      "usually": 1641,
      "math": 1642,
      "stay": 1643,
      "core": 1644,
      "avor": 1645,
      "lu": 1646,
      "expect": 1647,
      "educ": 1648,
      "pha": 1649,
      "argu": 1650,
      "brilli": 1651,
      "cut": 1652,
      "parts": 1653,
      "hind": 1654,
      "bigger": 1655,
      "specific": 1656,
      "perform": 1657,
      "tube": 1658,
      "positive": 1659,
      "star": 1660,
      "instead": 1661,
      "eventually": 1662,
      "met": 1663,
      "plane": 1664,
      "sorry": 1665,
      "russia": 1666,
      "heart": 1667,
      "ade": 1668,
      "omen": 1669,
      "ency": 1670,
      "situation": 1671,
      "fair": 1672,
      "ian": 1673,
      "inclu": 1674,
      "deeply": 1675,
      "freedom": 1676,
      "quickly": 1677,
      "peri": 1678,
      "coll": 1679,
      "capital": 1680,
      "behavior": 1681,
      "ilities": 1682,
      "necessarily": 1683,
      "knows": 1684,
      "piece": 1685,
      "tally": 1686,
      "moving": 1687,
      "speaking": 1688,
      "priv": 1689,
      "hone": 1690,
      "beings": 1691,
      "dro": 1692,
      "american": 1693,
      "ring": 1694,
      "bey": 1695,
      "random": 1696,
      "role": 1697,
      "check": 1698,
      "challeng": 1699,
      "sym": 1700,
      "scientific": 1701,
      "favor": 1702,
      "places": 1703,
      "six": 1704,
      "algorithm": 1705,
      "dies": 1706,
      "water": 1707,
      "mathematics": 1708,
      "phone": 1709,
      "standard": 1710,
      "fail": 1711,
      "source": 1712,
      "neg": 1713,
      "written": 1714,
      "suffering": 1715,
      "biology": 1716,
      "behind": 1717,
      "asking": 1718,
      "culture": 1719,
      "flow": 1720,
      "lives": 1721,
      "fil": 1722,
      "ili": 1723,
      "memory": 1724,
      "forward": 1725,
      "30": 1726,
      "billion": 1727,
      "oked": 1728,
      "stat": 1729,
      "rather": 1730,
      "starting": 1731,
      "ina": 1732,
      "worth": 1733,
      "honest": 1734,
      "rain": 1735,
      "cells": 1736,
      "totally": 1737,
      "tem": 1738,
      "numbers": 1739,
      "rid": 1740,
      "pped": 1741,
      "elon": 1742,
      "reading": 1743,
      "measure": 1744,
      "brilliant": 1745,
      "bur": 1746,
      "leave": 1747,
      "period": 1748,
      "benef": 1749,
      "beyond": 1750,
      "computation": 1751,
      "ories": 1752,
      "fear": 1753,
      "argument": 1754,
      "dle": 1755,
      "ception": 1756,
      "simp": 1757,
      "goog": 1758,
      "appe": 1759,
      "dark": 1760,
      "known": 1761,
      "asked": 1762,
      "men": 1763,
      "throw": 1764,
      "front": 1765,
      "respect": 1766,
      "food": 1767,
      "gree": 1768,
      "longer": 1769,
      "aware": 1770,
      "doll": 1771,
      "personal": 1772,
      "civilization": 1773,
      "beginning": 1774,
      "youtube": 1775,
      "giving": 1776,
      "wise": 1777,
      "enge": 1778,
      "ended": 1779,
      "exciting": 1780,
      "sem": 1781,
      "risk": 1782,
      "jective": 1783,
      "google": 1784,
      "opport": 1785,
      "opportun": 1786,
      "reci": 1787,
      "post": 1788,
      "heard": 1789,
      "gold": 1790,
      "version": 1791,
      "pick": 1792,
      "moder": 1793,
      "task": 1794,
      "house": 1795,
      "ably": 1796,
      "challenge": 1797,
      "attention": 1798,
      "reasons": 1799,
      "political": 1800,
      "autonom": 1801,
      "bat": 1802,
      "major": 1803,
      "bot": 1804,
      "tools": 1805,
      "sis": 1806,
      "gave": 1807,
      "wait": 1808,
      "theore": 1809,
      "utes": 1810,
      "ension": 1811,
      "grav": 1812,
      "chance": 1813,
      "scientists": 1814,
      "lost": 1815,
      "tail": 1816,
      "tried": 1817,
      "ls": 1818,
      "tic": 1819,
      "inno": 1820,
      "decision": 1821,
      "picture": 1822,
      "pping": 1823,
      "tries": 1824,
      "eff": 1825,
      "quo": 1826,
      "turns": 1827,
      "advice": 1828,
      "ateg": 1829,
      "solution": 1830,
      "achie": 1831,
      "surpris": 1832,
      "tors": 1833,
      "abstr": 1834,
      "200": 1835,
      "uk": 1836,
      "ourselves": 1837,
      "century": 1838,
      "sat": 1839,
      "usion": 1840,
      "ished": 1841,
      "media": 1842,
      "ried": 1843,
      "computers": 1844,
      "sent": 1845,
      "dev": 1846,
      "instit": 1847,
      "tex": 1848,
      "ances": 1849,
      "wants": 1850,
      "nal": 1851,
      "months": 1852,
      "relative": 1853,
      "successful": 1854,
      "ied": 1855,
      "pto": 1856,
      "eth": 1857,
      "lin": 1858,
      "din": 1859,
      "antly": 1860,
      "cases": 1861,
      "antic": 1862,
      "sport": 1863,
      "concer": 1864,
      "match": 1865,
      "chain": 1866,
      "rible": 1867,
      "evidence": 1868,
      "obvious": 1869,
      "ome": 1870,
      "profess": 1871,
      "involved": 1872,
      "direction": 1873,
      "rup": 1874,
      "evil": 1875,
      "wrest": 1876,
      "visual": 1877,
      "mist": 1878,
      "virus": 1879,
      "ker": 1880,
      "looked": 1881,
      "frame": 1882,
      "lose": 1883,
      "broad": 1884,
      "pho": 1885,
      "machines": 1886,
      "sad": 1887,
      "slow": 1888,
      "died": 1889,
      "pattern": 1890,
      "intuition": 1891,
      "dimension": 1892,
      "auth": 1893,
      "decisions": 1894,
      "ouble": 1895,
      "indust": 1896,
      "ulate": 1897,
      "tend": 1898,
      "skill": 1899,
      "mil": 1900,
      "minutes": 1901,
      "iction": 1902,
      "atest": 1903,
      "leader": 1904,
      "progress": 1905,
      "middle": 1906,
      "cam": 1907,
      "quote": 1908,
      "nuc": 1909,
      "utions": 1910,
      "neuro": 1911,
      "complexity": 1912,
      "block": 1913,
      "students": 1914,
      "crypto": 1915,
      "proof": 1916,
      "consid": 1917,
      "ney": 1918,
      "phen": 1919,
      "autonomous": 1920,
      "character": 1921,
      "issue": 1922,
      "gone": 1923,
      "invent": 1924,
      "mole": 1925,
      "active": 1926,
      "scre": 1927,
      "reach": 1928,
      "plat": 1929,
      "ror": 1930,
      "sight": 1931,
      "feed": 1932,
      "ared": 1933,
      "roy": 1934,
      "calcul": 1935,
      "negative": 1936,
      "eat": 1937,
      "ane": 1938,
      "putting": 1939,
      "digital": 1940,
      "ctions": 1941,
      "walk": 1942,
      "innov": 1943,
      "supposed": 1944,
      "easier": 1945,
      "recor": 1946,
      "forth": 1947,
      "fire": 1948,
      "earli": 1949,
      "anti": 1950,
      "emerg": 1951,
      "connection": 1952,
      "higher": 1953,
      "wit": 1954,
      "song": 1955,
      "xim": 1956,
      "mas": 1957,
      "ima": 1958,
      "omy": 1959,
      "changed": 1960,
      "nar": 1961,
      "beat": 1962,
      "appreci": 1963,
      "vered": 1964,
      "def": 1965,
      "fortun": 1966,
      "telling": 1967,
      "during": 1968,
      "secur": 1969,
      "recently": 1970,
      "io": 1971,
      "extremely": 1972,
      "mistake": 1973,
      "connected": 1974,
      "worry": 1975,
      "truly": 1976,
      "wow": 1977,
      "distribut": 1978,
      "week": 1979,
      "treat": 1980,
      "strain": 1981,
      "bed": 1982,
      "spi": 1983,
      "simulation": 1984,
      "discover": 1985,
      "isms": 1986,
      "ference": 1987,
      "hic": 1988,
      "algorithms": 1989,
      "meta": 1990,
      "millions": 1991,
      "send": 1992,
      "don": 1993,
      "multiple": 1994,
      "infin": 1995,
      "somewhere": 1996,
      "size": 1997,
      "dden": 1998,
      "became": 1999,
      "vehic": 2000,
      "anyone": 2001,
      "mark": 2002,
      "dete": 2003,
      "laws": 2004,
      "career": 2005,
      "must": 2006,
      "following": 2007,
      "thousands": 2008,
      "species": 2009,
      "gotten": 2010,
      "joe": 2011,
      "philosophy": 2012,
      "fan": 2013,
      "sudden": 2014,
      "intel": 2015,
      "depend": 2016,
      "danger": 2017,
      "sou": 2018,
      "hell": 2019,
      "ivity": 2020,
      "accept": 2021,
      "modern": 2022,
      "thon": 2023,
      "area": 2024,
      "forms": 2025,
      "resour": 2026,
      "sitting": 2027,
      "genet": 2028,
      "attack": 2029,
      "ball": 2030,
      "speed": 2031,
      "cash": 2032,
      "bel": 2033,
      "responsi": 2034,
      "access": 2035,
      "integr": 2036,
      "applic": 2037,
      "city": 2038,
      "demo": 2039,
      "board": 2040,
      "concern": 2041,
      "oud": 2042,
      "obser": 2043,
      "objects": 2044,
      "notion": 2045,
      "deca": 2046,
      "clearly": 2047,
      "erial": 2048,
      "dead": 2049,
      "spend": 2050,
      "born": 2051,
      "meth": 2052,
      "acade": 2053,
      "favorite": 2054,
      "201": 2055,
      "mechanism": 2056,
      "table": 2057,
      "mort": 2058,
      "sun": 2059,
      "china": 2060,
      "thoughts": 2061,
      "development": 2062,
      "security": 2063,
      "tivity": 2064,
      "excited": 2065,
      "author": 2066,
      "da": 2067,
      "ient": 2068,
      "audi": 2069,
      "sounds": 2070,
      "stars": 2071,
      "hardware": 2072,
      "ukrain": 2073,
      "weight": 2074,
      "greatest": 2075,
      "bs": 2076,
      "anybody": 2077,
      "destroy": 2078,
      "tes": 2079,
      "auto": 2080,
      "rele": 2081,
      "beauty": 2082,
      "faster": 2083,
      "deb": 2084,
      "fix": 2085,
      "emp": 2086,
      "taken": 2087,
      "types": 2088,
      "choice": 2089,
      "experiences": 2090,
      "robotics": 2091,
      "termin": 2092,
      "comfort": 2093,
      "america": 2094,
      "ax": 2095,
      "box": 2096,
      "material": 2097,
      "earlier": 2098,
      "eyes": 2099,
      "smo": 2100,
      "road": 2101,
      "biggest": 2102,
      "late": 2103,
      "intro": 2104,
      "tou": 2105,
      "revol": 2106,
      "result": 2107,
      "continu": 2108,
      "mars": 2109,
      "curi": 2110,
      "aspects": 2111,
      "kets": 2112,
      "third": 2113,
      "init": 2114,
      "ators": 2115,
      "drive": 2116,
      "folks": 2117,
      "changes": 2118,
      "awe": 2119,
      "white": 2120,
      "agg": 2121,
      "publ": 2122,
      "base": 2123,
      "cru": 2124,
      "instance": 2125,
      "glo": 2126,
      "raid": 2127,
      "magic": 2128,
      "currency": 2129,
      "incredibly": 2130,
      "opposed": 2131,
      "joh": 2132,
      "constrain": 2133,
      "willing": 2134,
      "mission": 2135,
      "achieve": 2136,
      "fur": 2137,
      "technical": 2138,
      "influ": 2139,
      "computational": 2140,
      "lish": 2141,
      "national": 2142,
      "abor": 2143,
      "combin": 2144,
      "related": 2145,
      "consider": 2146,
      "crat": 2147,
      "mathematical": 2148,
      "opportunity": 2149,
      "scri": 2150,
      "movie": 2151,
      "gl": 2152,
      "hate": 2153,
      "ified": 2154,
      "humanity": 2155,
      "allows": 2156,
      "scen": 2157,
      "paren": 2158,
      "children": 2159,
      "improve": 2160,
      "needed": 2161,
      "loc": 2162,
      "fundamentally": 2163,
      "draw": 2164,
      "john": 2165,
      "sty": 2166,
      "starts": 2167,
      "sever": 2168,
      "choose": 2169,
      "sum": 2170,
      "ric": 2171,
      "bing": 2172,
      "gotta": 2173,
      "afraid": 2174,
      "spo": 2175,
      "mostly": 2176,
      "aring": 2177,
      "construct": 2178,
      "sil": 2179,
      "interaction": 2180,
      "card": 2181,
      "ught": 2182,
      "explor": 2183,
      "fit": 2184,
      "string": 2185,
      "ible": 2186,
      "ense": 2187,
      "load": 2188,
      "sens": 2189,
      "realized": 2190,
      "apple": 2191,
      "animals": 2192,
      "milit": 2193,
      "anymore": 2194,
      "spons": 2195,
      "mechanics": 2196,
      "oid": 2197,
      "lowed": 2198,
      "strugg": 2199,
      "rate": 2200,
      "violence": 2201,
      "detail": 2202,
      "capt": 2203,
      "various": 2204,
      "loy": 2205,
      "possibility": 2206,
      "critic": 2207,
      "motiv": 2208,
      "ressive": 2209,
      "scientist": 2210,
      "cars": 2211,
      "turing": 2212,
      "pas": 2213,
      "minds": 2214,
      "conv": 2215,
      "python": 2216,
      "yor": 2217,
      "share": 2218,
      "wish": 2219,
      "weap": 2220,
      "rule": 2221,
      "argue": 2222,
      "agre": 2223,
      "hur": 2224,
      "philosophical": 2225,
      "intellect": 2226,
      "belief": 2227,
      "please": 2228,
      "points": 2229,
      "gal": 2230,
      "covid": 2231,
      "journey": 2232,
      "degree": 2233,
      "forget": 2234,
      "ults": 2235,
      "molecu": 2236,
      "fran": 2237,
      "cise": 2238,
      "vert": 2239,
      "stories": 2240,
      "aim": 2241,
      "sex": 2242,
      "extra": 2243,
      "principles": 2244,
      "nuclear": 2245,
      "mass": 2246,
      "agi": 2247,
      "travel": 2248,
      "currently": 2249,
      "ref": 2250,
      "topic": 2251,
      "purpose": 2252,
      "conversations": 2253,
      "arm": 2254,
      "verage": 2255,
      "ceive": 2256,
      "pull": 2257,
      "kept": 2258,
      "objective": 2259,
      "opin": 2260,
      "pic": 2261,
      "communication": 2262,
      "several": 2263,
      "tit": 2264,
      "ement": 2265,
      "viet": 2266,
      "limited": 2267,
      "stal": 2268,
      "sets": 2269,
      "separ": 2270,
      "signific": 2271,
      "cide": 2272,
      "watching": 2273,
      "description": 2274,
      "instein": 2275,
      "physic": 2276,
      "simply": 2277,
      "mental": 2278,
      "aged": 2279,
      "strateg": 2280,
      "personally": 2281,
      "efficient": 2282,
      "fli": 2283,
      "incent": 2284,
      "decid": 2285,
      "military": 2286,
      "15": 2287,
      "soon": 2288,
      "counter": 2289,
      "seven": 2290,
      "unique": 2291,
      "deli": 2292,
      "finan": 2293,
      "inspir": 2294,
      "dee": 2295,
      "lines": 2296,
      "expand": 2297,
      "cum": 2298,
      "alex": 2299,
      "throughout": 2300,
      "education": 2301,
      "alpha": 2302,
      "thanks": 2303,
      "countries": 2304,
      "squ": 2305,
      "tran": 2306,
      "fighting": 2307,
      "discovered": 2308,
      "recomm": 2309,
      "asing": 2310,
      "signal": 2311,
      "property": 2312,
      "dise": 2313,
      "popular": 2314,
      "ail": 2315,
      "fai": 2316,
      "ss": 2317,
      "definition": 2318,
      "hitler": 2319,
      "revolution": 2320,
      "pand": 2321,
      "tial": 2322,
      "shouldn": 2323,
      "touch": 2324,
      "economic": 2325,
      "further": 2326,
      "examples": 2327,
      "predic": 2328,
      "resources": 2329,
      "iny": 2330,
      "image": 2331,
      "ped": 2332,
      "consequ": 2333,
      "spot": 2334,
      "supp": 2335,
      "stood": 2336,
      "harder": 2337,
      "elic": 2338,
      "west": 2339,
      "generation": 2340,
      "serious": 2341,
      "competition": 2342,
      "tradition": 2343,
      "plus": 2344,
      "stri": 2345,
      "lim": 2346,
      "method": 2347,
      "york": 2348,
      "wers": 2349,
      "compl": 2350,
      "impossible": 2351,
      "assum": 2352,
      "virt": 2353,
      "performance": 2354,
      "pure": 2355,
      "ret": 2356,
      "produce": 2357,
      "feat": 2358,
      "grand": 2359,
      "onent": 2360,
      "alien": 2361,
      "myster": 2362,
      "president": 2363,
      "experiments": 2364,
      "luck": 2365,
      "except": 2366,
      "cognitive": 2367,
      "assem": 2368,
      "roll": 2369,
      "biological": 2370,
      "including": 2371,
      "meet": 2372,
      "sell": 2373,
      "lower": 2374,
      "syn": 2375,
      "spent": 2376,
      "redu": 2377,
      "foc": 2378,
      "turned": 2379,
      "engineer": 2380,
      "groups": 2381,
      "wrestling": 2382,
      "awesome": 2383,
      "por": 2384,
      "interpret": 2385,
      "phenomen": 2386,
      "edge": 2387,
      "existence": 2388,
      "psyched": 2389,
      "weren": 2390,
      "minute": 2391,
      "layer": 2392,
      "ford": 2393,
      "near": 2394,
      "inspi": 2395,
      "rupt": 2396,
      "threat": 2397,
      "psychedelic": 2398,
      "changing": 2399,
      "effects": 2400,
      "drug": 2401,
      "neurons": 2402,
      "knowing": 2403,
      "although": 2404,
      "soviet": 2405,
      "maxim": 2406,
      "issues": 2407,
      "eight": 2408,
      "trick": 2409,
      "computing": 2410,
      "techni": 2411,
      "drugs": 2412,
      "lesson": 2413,
      "levels": 2414,
      "pandem": 2415,
      "college": 2416,
      "struction": 2417,
      "papers": 2418,
      "thesis": 2419,
      "sume": 2420,
      "safety": 2421,
      "alone": 2422,
      "leaders": 2423,
      "particularly": 2424,
      "voice": 2425,
      "itu": 2426,
      "ordin": 2427,
      "immedi": 2428,
      "chris": 2429,
      "driver": 2430,
      "discussion": 2431,
      "anced": 2432,
      "sky": 2433,
      "istry": 2434,
      "moments": 2435,
      "jud": 2436,
      "explore": 2437,
      "planets": 2438,
      "ange": 2439,
      "weak": 2440,
      "mail": 2441,
      "para": 2442,
      "dynamics": 2443,
      "generally": 2444,
      "aliens": 2445,
      "dimensional": 2446,
      "appreciate": 2447,
      "euro": 2448,
      "sid": 2449,
      "rein": 2450,
      "brought": 2451,
      "university": 2452,
      "dad": 2453,
      "plement": 2454,
      "worse": 2455,
      "finding": 2456,
      "dollars": 2457,
      "massive": 2458,
      "contract": 2459,
      "master": 2460,
      "perception": 2461,
      "mine": 2462,
      "tough": 2463,
      "wall": 2464,
      "online": 2465,
      "constantly": 2466,
      "challenges": 2467,
      "camer": 2468,
      "lict": 2469,
      "umb": 2470,
      "ym": 2471,
      "caus": 2472,
      "gravity": 2473,
      "account": 2474,
      "conflict": 2475,
      "putin": 2476,
      "store": 2477,
      "matic": 2478,
      "terrible": 2479,
      "expert": 2480,
      "played": 2481,
      "trade": 2482,
      "communicate": 2483,
      "ges": 2484,
      "define": 2485,
      "therefore": 2486,
      "manip": 2487,
      "potentially": 2488,
      "round": 2489,
      "father": 2490,
      "express": 2491,
      "evolutionary": 2492,
      "emotion": 2493,
      "commit": 2494,
      "implement": 2495,
      "centralized": 2496,
      "fly": 2497,
      "ensive": 2498,
      "onto": 2499,
      "capac": 2500,
      "jump": 2501,
      "sch": 2502,
      "trump": 2503,
      "logies": 2504,
      "local": 2505,
      "craft": 2506,
      "developed": 2507,
      "dangerous": 2508,
      "passion": 2509,
      "40": 2510,
      "prop": 2511,
      "quality": 2512,
      "politics": 2513,
      "continue": 2514,
      "industry": 2515,
      "ukraine": 2516,
      "comfortable": 2517,
      "sug": 2518,
      "relig": 2519,
      "oly": 2520,
      "theories": 2521,
      "comment": 2522,
      "hypo": 2523,
      "cape": 2524,
      "creative": 2525,
      "hands": 2526,
      "focused": 2527,
      "alle": 2528,
      "famous": 2529,
      "exists": 2530,
      "facebook": 2531,
      "global": 2532,
      "affect": 2533,
      "surface": 2534,
      "stick": 2535,
      "union": 2536,
      "simul": 2537,
      "imagin": 2538,
      "individuals": 2539,
      "apart": 2540,
      "flo": 2541,
      "insight": 2542,
      "ucking": 2543,
      "advant": 2544,
      "pieces": 2545,
      "psychology": 2546,
      "dem": 2547,
      "hood": 2548,
      "minim": 2549,
      "concepts": 2550,
      "ram": 2551,
      "worried": 2552,
      "content": 2553,
      "messa": 2554,
      "financial": 2555,
      "jit": 2556,
      "tre": 2557,
      "marx": 2558,
      "mee": 2559,
      "solving": 2560,
      "olymp": 2561,
      "otherwise": 2562,
      "balance": 2563,
      "chemistry": 2564,
      "tiny": 2565,
      "lection": 2566,
      "abo": 2567,
      "goals": 2568,
      "reasoning": 2569,
      "depends": 2570,
      "terr": 2571,
      "brains": 2572,
      "hundreds": 2573,
      "oms": 2574,
      "ysis": 2575,
      "protect": 2576,
      "whereas": 2577,
      "claim": 2578,
      "mortality": 2579,
      "puts": 2580,
      "itect": 2581,
      "architect": 2582,
      "shows": 2583,
      "statist": 2584,
      "eye": 2585,
      "psych": 2586,
      "steps": 2587,
      "values": 2588,
      "private": 2589,
      "stage": 2590,
      "ley": 2591,
      "thinks": 2592,
      "disagree": 2593,
      "parents": 2594,
      "style": 2595,
      "effort": 2596,
      "cine": 2597,
      "inv": 2598,
      "enter": 2599,
      "among": 2600,
      "understood": 2601,
      "deeper": 2602,
      "features": 2603,
      "none": 2604,
      "race": 2605,
      "studies": 2606,
      "aust": 2607,
      "decide": 2608,
      "ada": 2609,
      "gain": 2610,
      "ws": 2611,
      "particles": 2612,
      "polic": 2613,
      "tera": 2614,
      "credit": 2615,
      "ech": 2616,
      "functions": 2617,
      "forcement": 2618,
      "12": 2619,
      "results": 2620,
      "forever": 2621,
      "jobs": 2622,
      "jec": 2623,
      "economics": 2624,
      "bound": 2625,
      "dav": 2626,
      "roc": 2627,
      "feature": 2628,
      "cetera": 2629,
      "hole": 2630,
      "tells": 2631,
      "mix": 2632,
      "pressure": 2633,
      "detect": 2634,
      "decades": 2635,
      "europe": 2636,
      "pan": 2637,
      "dog": 2638,
      "accur": 2639,
      "price": 2640,
      "famili": 2641,
      "vaccine": 2642,
      "zz": 2643,
      "uate": 2644,
      "stree": 2645,
      "lies": 2646,
      "geor": 2647,
      "agent": 2648,
      "apply": 2649,
      "ron": 2650,
      "sl": 2651,
      "tests": 2652,
      "einstein": 2653,
      "speech": 2654,
      "languages": 2655,
      "potential": 2656,
      "hop": 2657,
      "provid": 2658,
      "swit": 2659,
      "becoming": 2660,
      "loop": 2661,
      "pleas": 2662,
      "recommend": 2663,
      "18": 2664,
      "ire": 2665,
      "analysis": 2666,
      "tesla": 2667,
      "abilities": 2668,
      "himself": 2669,
      "programs": 2670,
      "practice": 2671,
      "stalin": 2672,
      "sco": 2673,
      "asses": 2674,
      "capable": 2675,
      "policy": 2676,
      "fill": 2677,
      "slight": 2678,
      "metr": 2679,
      "interview": 2680,
      "player": 2681,
      "vaccin": 2682,
      "pandemic": 2683,
      "rights": 2684,
      "requires": 2685,
      "igh": 2686,
      "greater": 2687,
      "fried": 2688,
      "easily": 2689,
      "solar": 2690,
      "processing": 2691,
      "population": 2692,
      "analy": 2693,
      "trouble": 2694,
      "aging": 2695,
      "capitalism": 2696,
      "ahead": 2697,
      "ji": 2698,
      "mur": 2699,
      "ology": 2700,
      "stup": 2701,
      "sili": 2702,
      "party": 2703,
      "arian": 2704,
      "suppose": 2705,
      "range": 2706,
      "unfortun": 2707,
      "economy": 2708,
      "student": 2709,
      "sponsors": 2710,
      "weapons": 2711,
      "ray": 2712,
      "ceed": 2713,
      "consist": 2714,
      "service": 2715,
      "meters": 2716,
      "prize": 2717,
      "custom": 2718,
      "collabor": 2719,
      "secre": 2720,
      "cold": 2721,
      "smaller": 2722,
      "videos": 2723,
      "jitsu": 2724,
      "ky": 2725,
      "astic": 2726,
      "creates": 2727,
      "intellectual": 2728,
      "liber": 2729,
      "associ": 2730,
      "dependent": 2731,
      "musk": 2732,
      "blood": 2733,
      "incentive": 2734,
      "mother": 2735,
      "micha": 2736,
      "epis": 2737,
      "chemical": 2738,
      "michael": 2739,
      "rep": 2740,
      "review": 2741,
      "percent": 2742,
      "histor": 2743,
      "generate": 2744,
      "growing": 2745,
      "critical": 2746,
      "determin": 2747,
      "require": 2748,
      "meeting": 2749,
      "original": 2750,
      "reinforcement": 2751,
      "capacity": 2752,
      "proto": 2753,
      "wake": 2754,
      "pursu": 2755,
      "disease": 2756,
      "iously": 2757,
      "vive": 2758,
      "lived": 2759,
      "explan": 2760,
      "sphere": 2761,
      "bra": 2762,
      "cracy": 2763,
      "element": 2764,
      "stra": 2765,
      "ptions": 2766,
      "ifying": 2767,
      "north": 2768,
      "protein": 2769,
      "stupid": 2770,
      "sions": 2771,
      "track": 2772,
      "bank": 2773,
      "surprising": 2774,
      "david": 2775,
      "rap": 2776,
      "champ": 2777,
      "operating": 2778,
      "hyper": 2779,
      "weeks": 2780,
      "animal": 2781,
      "theoret": 2782,
      "cover": 2783,
      "giant": 2784,
      "dou": 2785,
      "doctor": 2786,
      "imm": 2787,
      "bir": 2788,
      "figured": 2789,
      "analog": 2790,
      "relatively": 2791,
      "recognize": 2792,
      "survive": 2793,
      "allowed": 2794,
      "unless": 2795,
      "joke": 2796,
      "ni": 2797,
      "pen": 2798,
      "novel": 2799,
      "illed": 2800,
      "vised": 2801,
      "benefit": 2802,
      "friedman": 2803,
      "domin": 2804,
      "moved": 2805,
      "bits": 2806,
      "observ": 2807,
      "opinion": 2808,
      "immediately": 2809,
      "dumb": 2810,
      "jav": 2811,
      "solved": 2812,
      "center": 2813,
      "condition": 2814,
      "emer": 2815,
      "reng": 2816,
      "operate": 2817,
      "ift": 2818,
      "talks": 2819,
      "icians": 2820,
      "virtual": 2821,
      "nation": 2822,
      "orm": 2823,
      "lied": 2824,
      "exe": 2825,
      "larger": 2826,
      "details": 2827,
      "religion": 2828,
      "meant": 2829,
      "introdu": 2830,
      "band": 2831,
      "rare": 2832,
      "english": 2833,
      "cortex": 2834,
      "avoid": 2835,
      "blah": 2836,
      "experien": 2837,
      "ridicul": 2838,
      "cas": 2839,
      "technologies": 2840,
      "assembly": 2841,
      "itude": 2842,
      "foot": 2843,
      "certainty": 2844,
      "probability": 2845,
      "opp": 2846,
      "launch": 2847,
      "spirit": 2848,
      "patterns": 2849,
      "streng": 2850,
      "helps": 2851,
      "judo": 2852,
      "report": 2853,
      "depres": 2854,
      "une": 2855,
      "possibly": 2856,
      "autom": 2857,
      "native": 2858,
      "micro": 2859,
      "doc": 2860,
      "iet": 2861,
      "innovation": 2862,
      "holes": 2863,
      "worst": 2864,
      "ression": 2865,
      "ishing": 2866,
      "viruses": 2867,
      "statement": 2868,
      "extent": 2869,
      "directly": 2870,
      "finally": 2871,
      "seriously": 2872,
      "clean": 2873,
      "relationships": 2874,
      "vehicles": 2875,
      "everywhere": 2876,
      "highly": 2877,
      "hon": 2878,
      "regard": 2879,
      "normal": 2880,
      "reve": 2881,
      "sible": 2882,
      "trained": 2883,
      "email": 2884,
      "fla": 2885,
      "thro": 2886,
      "alter": 2887,
      "cesses": 2888,
      "wonderful": 2889,
      "happiness": 2890,
      "loved": 2891,
      "properties": 2892,
      "cis": 2893,
      "gment": 2894,
      "forces": 2895,
      "valuable": 2896,
      "average": 2897,
      "mut": 2898,
      "sac": 2899,
      "cop": 2900,
      "chine": 2901,
      "iety": 2902,
      "journal": 2903,
      "chinese": 2904,
      "studying": 2905,
      "tar": 2906,
      "women": 2907,
      "oft": 2908,
      "matters": 2909,
      "mechanisms": 2910,
      "decided": 2911,
      "previ": 2912,
      "prior": 2913,
      "medical": 2914,
      "subscri": 2915,
      "distin": 2916,
      "walking": 2917,
      "emotional": 2918,
      "door": 2919,
      "spread": 2920,
      "sorts": 2921,
      "capture": 2922,
      "hang": 2923,
      "lif": 2924,
      "effectively": 2925,
      "advantage": 2926,
      "reward": 2927,
      "news": 2928,
      "elements": 2929,
      "necessary": 2930,
      "occur": 2931,
      "narr": 2932,
      "rational": 2933,
      "rew": 2934,
      "images": 2935,
      "ensions": 2936,
      "representation": 2937,
      "suggest": 2938,
      "zo": 2939,
      "accompl": 2940,
      "fold": 2941,
      "engineers": 2942,
      "separate": 2943,
      "mir": 2944,
      "sal": 2945,
      "mess": 2946,
      "movement": 2947,
      "equation": 2948,
      "designed": 2949,
      "uments": 2950,
      "leap": 2951,
      "blue": 2952,
      "morning": 2953,
      "automat": 2954,
      "street": 2955,
      "nic": 2956,
      "tour": 2957,
      "acking": 2958,
      "oppos": 2959,
      "expon": 2960,
      "increase": 2961,
      "wom": 2962,
      "tax": 2963,
      "genes": 2964,
      "dimensions": 2965,
      "gir": 2966,
      "sus": 2967,
      "acc": 2968,
      "evolved": 2969,
      "factor": 2970,
      "teaching": 2971,
      "tempt": 2972,
      "hurt": 2973,
      "bon": 2974,
      "tons": 2975,
      "wis": 2976,
      "ifically": 2977,
      "therap": 2978,
      "licit": 2979,
      "cris": 2980,
      "growth": 2981,
      "religi": 2982,
      "ned": 2983,
      "supervised": 2984,
      "transform": 2985,
      "helping": 2986,
      "hopefully": 2987,
      "inflation": 2988,
      "wife": 2989,
      "distance": 2990,
      "profound": 2991,
      "11": 2992,
      "itor": 2993,
      "month": 2994,
      "conditions": 2995,
      "closer": 2996,
      "sufficient": 2997,
      "gun": 2998,
      "molecules": 2999,
      "psychedelics": 3000,
      "enable": 3001,
      "shape": 3002,
      "slightly": 3003,
      "ado": 3004,
      "fre": 3005,
      "selection": 3006,
      "taught": 3007,
      "avail": 3008,
      "leads": 3009,
      "cup": 3010,
      "lad": 3011,
      "ying": 3012,
      "inde": 3013,
      "atic": 3014,
      "aries": 3015,
      "ressed": 3016,
      "events": 3017,
      "background": 3018,
      "healthy": 3019,
      "dynamic": 3020,
      "ridiculous": 3021,
      "enorm": 3022,
      "anywhere": 3023,
      "existential": 3024,
      "response": 3025,
      "print": 3026,
      "cking": 3027,
      "contribut": 3028,
      "infinite": 3029,
      "narrative": 3030,
      "bilities": 3031,
      "dance": 3032,
      "flying": 3033,
      "rac": 3034,
      "repe": 3035,
      "wild": 3036,
      "ques": 3037,
      "rent": 3038,
      "struggle": 3039,
      "abstract": 3040,
      "record": 3041,
      "nel": 3042,
      "provide": 3043,
      "internal": 3044,
      "players": 3045,
      "hero": 3046,
      "consum": 3047,
      "ings": 3048,
      "lock": 3049,
      "heav": 3050,
      "logically": 3051,
      "increasing": 3052,
      "symme": 3053,
      "bottom": 3054,
      "mistakes": 3055,
      "60": 3056,
      "pers": 3057,
      "ases": 3058,
      "fucking": 3059,
      "areas": 3060,
      "activity": 3061,
      "somewhat": 3062,
      "poor": 3063,
      "gas": 3064,
      "mod": 3065,
      "platform": 3066,
      "ego": 3067,
      "ethere": 3068,
      "moon": 3069,
      "germany": 3070,
      "showed": 3071,
      "ativity": 3072,
      "ites": 3073,
      "privacy": 3074,
      "maint": 3075,
      "urally": 3076,
      "gene": 3077,
      "proud": 3078,
      "carry": 3079,
      "truck": 3080,
      "21": 3081,
      "poli": 3082,
      "tension": 3083,
      "relev": 3084,
      "alive": 3085,
      "formed": 3086,
      "qual": 3087,
      "medic": 3088,
      "nine": 3089,
      "humor": 3090,
      "office": 3091,
      "missing": 3092,
      "older": 3093,
      "suddenly": 3094,
      "curious": 3095,
      "atory": 3096,
      "itation": 3097,
      "upon": 3098,
      "vies": 3099,
      "differently": 3100,
      "contact": 3101,
      "collect": 3102,
      "rial": 3103,
      "impro": 3104,
      "woman": 3105,
      "ethereum": 3106,
      "gry": 3107,
      "compil": 3108,
      "driven": 3109,
      "collective": 3110,
      "prediction": 3111,
      "sli": 3112,
      "domain": 3113,
      "map": 3114,
      "magn": 3115,
      "unfortunately": 3116,
      "ii": 3117,
      "page": 3118,
      "rogan": 3119,
      "rais": 3120,
      "afric": 3121,
      "respond": 3122,
      "legal": 3123,
      "exploration": 3124,
      "sche": 3125,
      "nobel": 3126,
      "assume": 3127,
      "geome": 3128,
      "ician": 3129,
      "brid": 3130,
      "constraints": 3131,
      "consequences": 3132,
      "george": 3133,
      "dna": 3134,
      "nu": 3135,
      "rock": 3136,
      "movies": 3137,
      "audience": 3138,
      "available": 3139,
      "billions": 3140,
      "fing": 3141,
      "formal": 3142,
      "wave": 3143,
      "organization": 3144,
      "tian": 3145,
      "answers": 3146,
      "precise": 3147,
      "governments": 3148,
      "winning": 3149,
      "professor": 3150,
      "switch": 3151,
      "religious": 3152,
      "miles": 3153,
      "significant": 3154,
      "sides": 3155,
      "ially": 3156,
      "return": 3157,
      "meat": 3158,
      "press": 3159,
      "layers": 3160,
      "straight": 3161,
      "opposite": 3162,
      "rise": 3163,
      "clar": 3164,
      "martial": 3165,
      "framework": 3166,
      "champion": 3167,
      "wars": 3168,
      "stan": 3169,
      "jeff": 3170,
      "arent": 3171,
      "resist": 3172,
      "bud": 3173,
      "corpor": 3174,
      "flu": 3175,
      "galax": 3176,
      "libr": 3177,
      "web": 3178,
      "weet": 3179,
      "cancer": 3180,
      "hot": 3181,
      "howe": 3182,
      "solutions": 3183,
      "primar": 3184,
      "total": 3185,
      "romantic": 3186,
      "stuck": 3187,
      "trajec": 3188,
      "structures": 3189,
      "losing": 3190,
      "moves": 3191,
      "stock": 3192,
      "fuck": 3193,
      "situations": 3194,
      "circu": 3195,
      "surprised": 3196,
      "responsibility": 3197,
      "jiu": 3198,
      "however": 3199,
      "user": 3200,
      "setting": 3201,
      "cript": 3202,
      "appear": 3203,
      "genetic": 3204,
      "causal": 3205,
      "moral": 3206,
      "universal": 3207,
      "photo": 3208,
      "inspiring": 3209,
      "cof": 3210,
      "stable": 3211,
      "conver": 3212,
      "academic": 3213,
      "supply": 3214,
      "fed": 3215,
      "showing": 3216,
      "testing": 3217,
      "institutions": 3218,
      "strategy": 3219,
      "fant": 3220,
      "pack": 3221,
      "stack": 3222,
      "micros": 3223,
      "fiction": 3224,
      "killed": 3225,
      "sam": 3226,
      "brother": 3227,
      "engage": 3228,
      "subject": 3229,
      "camera": 3230,
      "propag": 3231,
      "familiar": 3232,
      "refer": 3233,
      "sold": 3234,
      "defined": 3235,
      "foun": 3236,
      "anarch": 3237,
      "shut": 3238,
      "maintain": 3239,
      "bul": 3240,
      "double": 3241,
      "hat": 3242,
      "error": 3243,
      "cosmo": 3244,
      "celer": 3245,
      "series": 3246,
      "meaningful": 3247,
      "angle": 3248,
      "infra": 3249,
      "wide": 3250,
      "bringing": 3251,
      "neuroscience": 3252,
      "above": 3253,
      "lled": 3254,
      "smar": 3255,
      "conds": 3256,
      "startup": 3257,
      "swi": 3258,
      "exer": 3259,
      "nap": 3260,
      "naturally": 3261,
      "regul": 3262,
      "satis": 3263,
      "apo": 3264,
      "perceive": 3265,
      "fields": 3266,
      "alternative": 3267,
      "empath": 3268,
      "puzz": 3269,
      "clim": 3270,
      "limits": 3271,
      "input": 3272,
      "exchange": 3273,
      "hier": 3274,
      "described": 3275,
      "ased": 3276,
      "fat": 3277,
      "mom": 3278,
      "arts": 3279,
      "quar": 3280,
      "disci": 3281,
      "interface": 3282,
      "paralle": 3283,
      "film": 3284,
      "initial": 3285,
      "lucky": 3286,
      "wol": 3287,
      "theless": 3288,
      "imate": 3289,
      "agents": 3290,
      "paid": 3291,
      "productive": 3292,
      "athlet": 3293,
      "required": 3294,
      "feedback": 3295,
      "consistent": 3296,
      "emerge": 3297,
      "acceler": 3298,
      "logic": 3299,
      "color": 3300,
      "electron": 3301,
      "fairly": 3302,
      "published": 3303,
      "cles": 3304,
      "san": 3305,
      "tro": 3306,
      "stic": 3307,
      "stron": 3308,
      "final": 3309,
      "ification": 3310,
      "cognition": 3311,
      "kore": 3312,
      "anch": 3313,
      "coach": 3314,
      "eval": 3315,
      "hasn": 3316,
      "ival": 3317,
      "believ": 3318,
      "eating": 3319,
      "loss": 3320,
      "copy": 3321,
      "uncertainty": 3322,
      "conspir": 3323,
      "trum": 3324,
      "possibilities": 3325,
      "expensive": 3326,
      "depending": 3327,
      "osity": 3328,
      "perfectly": 3329,
      "tasks": 3330,
      "doub": 3331,
      "gap": 3332,
      "ann": 3333,
      "runs": 3334,
      "dollar": 3335,
      "distributed": 3336,
      "infrastructure": 3337,
      "discipl": 3338,
      "breaking": 3339,
      "physicists": 3340,
      "message": 3341,
      "careful": 3342,
      "confidence": 3343,
      "emotions": 3344,
      "challenging": 3345,
      "application": 3346,
      "silicon": 3347,
      "honor": 3348,
      "subscribe": 3349,
      "icial": 3350,
      "fee": 3351,
      "survi": 3352,
      "equations": 3353,
      "eric": 3354,
      "artic": 3355,
      "evolve": 3356,
      "regular": 3357,
      "succeed": 3358,
      "profit": 3359,
      "demon": 3360,
      "20th": 3361,
      "transl": 3362,
      "lie": 3363,
      "dow": 3364,
      "named": 3365,
      "relativity": 3366,
      "americans": 3367,
      "grew": 3368,
      "pushing": 3369,
      "abstraction": 3370,
      "zed": 3371,
      "geo": 3372,
      "elect": 3373,
      "products": 3374,
      "demand": 3375,
      "ustr": 3376,
      "valid": 3377,
      "colon": 3378,
      "processes": 3379,
      "studied": 3380,
      "creation": 3381,
      "len": 3382,
      "wealth": 3383,
      "dial": 3384,
      "underlying": 3385,
      "advanced": 3386,
      "deploy": 3387,
      "variable": 3388,
      "honestly": 3389,
      "iter": 3390,
      "techniques": 3391,
      "hierarch": 3392,
      "ged": 3393,
      "aster": 3394,
      "faces": 3395,
      "labor": 3396,
      "drop": 3397,
      "cryptocurrency": 3398,
      "scenari": 3399,
      "independent": 3400,
      "onents": 3401,
      "skills": 3402,
      "invented": 3403,
      "applications": 3404,
      "ox": 3405,
      "newton": 3406,
      "structive": 3407,
      "ners": 3408,
      "ode": 3409,
      "ano": 3410,
      "highest": 3411,
      "podcasts": 3412,
      "wisdom": 3413,
      "bill": 3414,
      "users": 3415,
      "plac": 3416,
      "symbo": 3417,
      "rna": 3418,
      "heck": 3419,
      "whenever": 3420,
      "save": 3421,
      "phd": 3422,
      "stor": 3423,
      "crete": 3424,
      "boring": 3425,
      "catch": 3426,
      "graduate": 3427,
      "phase": 3428,
      "vehicle": 3429,
      "convin": 3430,
      "target": 3431,
      "relevant": 3432,
      "16": 3433,
      "ging": 3434,
      "rigor": 3435,
      "ads": 3436,
      "choices": 3437,
      "spectrum": 3438,
      "influence": 3439,
      "faith": 3440,
      "secret": 3441,
      "theoretical": 3442,
      "25": 3443,
      "chip": 3444,
      "markets": 3445,
      "connections": 3446,
      "majority": 3447,
      "mystery": 3448,
      "lau": 3449,
      "trilli": 3450,
      "watched": 3451,
      "electric": 3452,
      "screen": 3453,
      "sacr": 3454,
      "dict": 3455,
      "hing": 3456,
      "nes": 3457,
      "agram": 3458,
      "cared": 3459,
      "battle": 3460,
      "bling": 3461,
      "failure": 3462,
      "spotify": 3463,
      "rout": 3464,
      "stress": 3465,
      "ideal": 3466,
      "strange": 3467,
      "memories": 3468,
      "broken": 3469,
      "specifically": 3470,
      "interacting": 3471,
      "symmetry": 3472,
      "aw": 3473,
      "acqu": 3474,
      "nets": 3475,
      "contain": 3476,
      "join": 3477,
      "colleag": 3478,
      "classical": 3479,
      "christian": 3480,
      "notice": 3481,
      "geni": 3482,
      "prevent": 3483,
      "manage": 3484,
      "optimistic": 3485,
      "ered": 3486,
      "ues": 3487,
      "tele": 3488,
      "poly": 3489,
      "fake": 3490,
      "legit": 3491,
      "leadership": 3492,
      "methods": 3493,
      "oce": 3494,
      "stake": 3495,
      "poker": 3496,
      "brief": 3497,
      "click": 3498,
      "practical": 3499,
      "debate": 3500,
      "adapt": 3501,
      "aling": 3502,
      "aside": 3503,
      "plu": 3504,
      "orders": 3505,
      "equival": 3506,
      "ethical": 3507,
      "strength": 3508,
      "compute": 3509,
      "operation": 3510,
      "distribution": 3511,
      "itarian": 3512,
      "bom": 3513,
      "essential": 3514,
      "illusion": 3515,
      "prise": 3516,
      "helped": 3517,
      "miss": 3518,
      "lessons": 3519,
      "bang": 3520,
      "sequence": 3521,
      "frank": 3522,
      "architecture": 3523,
      "explanation": 3524,
      "tang": 3525,
      "wast": 3526,
      "outcome": 3527,
      "damn": 3528,
      "silly": 3529,
      "cked": 3530,
      "ior": 3531,
      "physically": 3532,
      "linear": 3533,
      "collection": 3534,
      "hypothesis": 3535,
      "feet": 3536,
      "brit": 3537,
      "clin": 3538,
      "80": 3539,
      "hol": 3540,
      "bost": 3541,
      "genome": 3542,
      "interactions": 3543,
      "component": 3544,
      "finite": 3545,
      "reasonable": 3546,
      "particle": 3547,
      "magical": 3548,
      "discovery": 3549,
      "circum": 3550,
      "horrible": 3551,
      "ald": 3552,
      "leading": 3553,
      "paying": 3554,
      "responsible": 3555,
      "curiosity": 3556,
      "enormous": 3557,
      "90": 3558,
      "90s": 3559,
      "lack": 3560,
      "moun": 3561,
      "repre": 3562,
      "concl": 3563,
      "branch": 3564,
      "compelling": 3565,
      "typically": 3566,
      "tree": 3567,
      "aris": 3568,
      "deser": 3569,
      "fault": 3570,
      "slowly": 3571,
      "hack": 3572,
      "worlds": 3573,
      "bert": 3574,
      "manu": 3575,
      "cultur": 3576,
      "blockchain": 3577,
      "rapid": 3578,
      "gri": 3579,
      "pal": 3580,
      "wea": 3581,
      "estab": 3582,
      "equal": 3583,
      "literature": 3584,
      "mad": 3585,
      "boy": 3586,
      "seemed": 3587,
      "keeps": 3588,
      "protocol": 3589,
      "anx": 3590,
      "steve": 3591,
      "cook": 3592,
      "entrepre": 3593,
      "peace": 3594,
      "cele": 3595,
      "conserv": 3596,
      "standing": 3597,
      "logist": 3598,
      "impressive": 3599,
      "compared": 3600,
      "baby": 3601,
      "arguments": 3602,
      "particip": 3603,
      "recognition": 3604,
      "combination": 3605,
      "laugh": 3606,
      "sla": 3607,
      "vic": 3608,
      "align": 3609,
      "stream": 3610,
      "meter": 3611,
      "rench": 3612,
      "transition": 3613,
      "optimize": 3614,
      "predictions": 3615,
      "norm": 3616,
      "dealing": 3617,
      "transp": 3618,
      "ctivity": 3619,
      "gar": 3620,
      "note": 3621,
      "dreams": 3622,
      "gravit": 3623,
      "square": 3624,
      "murder": 3625,
      "ery": 3626,
      "host": 3627,
      "production": 3628,
      "soul": 3629,
      "attempt": 3630,
      "vere": 3631,
      "output": 3632,
      "ager": 3633,
      "technological": 3634,
      "austin": 3635,
      "stanford": 3636,
      "temp": 3637,
      "spending": 3638,
      "spect": 3639,
      "breakthrough": 3640,
      "device": 3641,
      "academ": 3642,
      "peter": 3643,
      "personality": 3644,
      "proteins": 3645,
      "democrat": 3646,
      "episode": 3647,
      "arri": 3648,
      "wear": 3649,
      "depart": 3650,
      "nav": 3651,
      "astro": 3652,
      "optimal": 3653,
      "broadly": 3654,
      "concerned": 3655,
      "atoms": 3656,
      "singular": 3657,
      "planning": 3658,
      "celebr": 3659,
      "tempor": 3660,
      "eco": 3661,
      "habit": 3662,
      "courage": 3663,
      "brings": 3664,
      "document": 3665,
      "accomplish": 3666,
      "cross": 3667,
      "gpt": 3668,
      "ud": 3669,
      "mode": 3670,
      "grab": 3671,
      "commer": 3672,
      "crimin": 3673,
      "projects": 3674,
      "fal": 3675,
      "hil": 3676,
      "lone": 3677,
      "mac": 3678,
      "ank": 3679,
      "tori": 3680,
      "exception": 3681,
      "shi": 3682,
      "els": 3683,
      "controver": 3684,
      "sophistic": 3685,
      "describing": 3686,
      "stern": 3687,
      "audio": 3688,
      "founder": 3689,
      "behave": 3690,
      "desire": 3691,
      "nevertheless": 3692,
      "bust": 3693,
      "acked": 3694,
      "prom": 3695,
      "basis": 3696,
      "figuring": 3697,
      "narrow": 3698,
      "birth": 3699,
      "conspiracy": 3700,
      "blow": 3701,
      "frequ": 3702,
      "ients": 3703,
      "mers": 3704,
      "decentralized": 3705,
      "charge": 3706,
      "release": 3707,
      "promis": 3708,
      "cular": 3709,
      "orbit": 3710,
      "seconds": 3711,
      "usual": 3712,
      "capabilities": 3713,
      "collap": 3714,
      "emergent": 3715,
      "metaph": 3716,
      "slash": 3717,
      "replic": 3718,
      "ascript": 3719,
      "club": 3720,
      "benefits": 3721,
      "javascript": 3722,
      "select": 3723,
      "parameters": 3724,
      "previous": 3725,
      "coffee": 3726,
      "manufact": 3727,
      "14": 3728,
      "ov": 3729,
      "reference": 3730,
      "era": 3731,
      "utr": 3732,
      "izations": 3733,
      "entirely": 3734,
      "physicist": 3735,
      "zoom": 3736,
      "circumst": 3737,
      "500": 3738,
      "cend": 3739,
      "mend": 3740,
      "pling": 3741,
      "raw": 3742,
      "korea": 3743,
      "aff": 3744,
      "chat": 3745,
      "phones": 3746,
      "scary": 3747,
      "temper": 3748,
      "opponent": 3749,
      "smarter": 3750,
      "cit": 3751,
      "tories": 3752,
      "western": 3753,
      "chur": 3754,
      "conside": 3755,
      "izes": 3756,
      "democracy": 3757,
      "heavy": 3758,
      "considered": 3759,
      "accor": 3760,
      "forced": 3761,
      "explicit": 3762,
      "ultimate": 3763,
      "male": 3764,
      "rat": 3765,
      "contr": 3766,
      "afgh": 3767,
      "flat": 3768,
      "stein": 3769,
      "inspired": 3770,
      "spl": 3771,
      "thetic": 3772,
      "ride": 3773,
      "aming": 3774,
      "unit": 3775,
      "turning": 3776,
      "applied": 3777,
      "signals": 3778,
      "ternal": 3779,
      "theorem": 3780,
      "pleasure": 3781,
      "80s": 3782,
      "date": 3783,
      "ante": 3784,
      "bodies": 3785,
      "embr": 3786,
      "creativity": 3787,
      "keeping": 3788,
      "genius": 3789,
      "instr": 3790,
      "mote": 3791,
      "cia": 3792,
      "spin": 3793,
      "views": 3794,
      "suffer": 3795,
      "traditional": 3796,
      "accurate": 3797,
      "accident": 3798,
      "vor": 3799,
      "arbit": 3800,
      "iced": 3801,
      "prep": 3802,
      "medium": 3803,
      "intuitive": 3804,
      "south": 3805,
      "vaccines": 3806,
      "bacter": 3807,
      "jack": 3808,
      "absur": 3809,
      "neigh": 3810,
      "gue": 3811,
      "guard": 3812,
      "risks": 3813,
      "psychological": 3814,
      "publish": 3815,
      "tremend": 3816,
      "associated": 3817,
      "13": 3818,
      "angry": 3819,
      "lee": 3820,
      "shift": 3821,
      "wood": 3822,
      "criticism": 3823,
      "experienced": 3824,
      "kno": 3825,
      "anger": 3826,
      "kes": 3827,
      "shared": 3828,
      "civilizations": 3829,
      "cand": 3830,
      "belt": 3831,
      "vector": 3832,
      "bull": 3833,
      "cyber": 3834,
      "topics": 3835,
      "depth": 3836,
      "title": 3837,
      "church": 3838,
      "17": 3839,
      "pul": 3840,
      "vin": 3841,
      "atom": 3842,
      "reaction": 3843,
      "eral": 3844,
      "mains": 3845,
      "differences": 3846,
      "believed": 3847,
      "identity": 3848,
      "songs": 3849,
      "crisis": 3850,
      "destructive": 3851,
      "dying": 3852,
      "facts": 3853,
      "instagram": 3854,
      "existing": 3855,
      "organisms": 3856,
      "pin": 3857,
      "condu": 3858,
      "international": 3859,
      "alexa": 3860,
      "blog": 3861,
      "tary": 3862,
      "acting": 3863,
      "experts": 3864,
      "tensor": 3865,
      "jordan": 3866,
      "depression": 3867,
      "absurd": 3868,
      "avi": 3869,
      "astron": 3870,
      "lete": 3871,
      "activ": 3872,
      "istan": 3873,
      "clock": 3874,
      "researchers": 3875,
      "agreement": 3876,
      "analogy": 3877,
      "exponential": 3878,
      "liked": 3879,
      "rix": 3880,
      "presents": 3881,
      "communism": 3882,
      "cellular": 3883,
      "developing": 3884,
      "organism": 3885,
      "prison": 3886,
      "sports": 3887,
      "according": 3888,
      "bid": 3889,
      "sample": 3890,
      "scrat": 3891,
      "wing": 3892,
      "transactions": 3893,
      "attach": 3894,
      "waves": 3895,
      "skin": 3896,
      "entirety": 3897,
      "feelings": 3898,
      "radio": 3899,
      "donald": 3900,
      "girl": 3901,
      "boston": 3902,
      "gro": 3903,
      "rog": 3904,
      "hosp": 3905,
      "german": 3906,
      "blind": 3907,
      "harm": 3908,
      "motion": 3909,
      "graphy": 3910,
      "scene": 3911,
      "purely": 3912,
      "tournam": 3913,
      "therapy": 3914,
      "demonstr": 3915,
      "van": 3916,
      "sensit": 3917,
      "simpl": 3918,
      "calling": 3919,
      "patre": 3920,
      "competitive": 3921,
      "bench": 3922,
      "teams": 3923,
      "initially": 3924,
      "incentives": 3925,
      "false": 3926,
      "frustr": 3927,
      "controlled": 3928,
      "younger": 3929,
      "professional": 3930,
      "aggressive": 3931,
      "vard": 3932,
      "atmo": 3933,
      "isol": 3934,
      "acle": 3935,
      "heat": 3936,
      "hardest": 3937,
      "shot": 3938,
      "exploring": 3939,
      "failed": 3940,
      "historical": 3941,
      "galaxy": 3942,
      "doubt": 3943,
      "patreon": 3944,
      "categ": 3945,
      "ham": 3946,
      "coordin": 3947,
      "degre": 3948,
      "plant": 3949,
      "naz": 3950,
      "produced": 3951,
      "waiting": 3952,
      "expected": 3953,
      "institution": 3954,
      "category": 3955,
      "degrees": 3956,
      "skept": 3957,
      "phas": 3958,
      "iped": 3959,
      "address": 3960,
      "neuron": 3961,
      "medicine": 3962,
      "ka": 3963,
      "itch": 3964,
      "simulate": 3965,
      "transfer": 3966,
      "microsoft": 3967,
      "equivalent": 3968,
      "3d": 3969,
      "99": 3970,
      "wind": 3971,
      "harvard": 3972,
      "blocks": 3973,
      "defense": 3974,
      "imagination": 3975,
      "empathy": 3976,
      "french": 3977,
      "tun": 3978,
      "infect": 3979,
      "terror": 3980,
      "formul": 3981,
      "roughly": 3982,
      "subjective": 3983,
      "graphs": 3984,
      "approaches": 3985,
      "tered": 3986,
      "advert": 3987,
      "quit": 3988,
      "stopped": 3989,
      "lights": 3990,
      "optimization": 3991,
      "empir": 3992,
      "olympic": 3993,
      "scratch": 3994,
      "logists": 3995,
      "surve": 3996,
      "beautifully": 3997,
      "dram": 3998,
      "contracts": 3999,
      "exercise": 4000,
      "arbitr": 4001,
      "divers": 4002,
      "bug": 4003,
      "loves": 4004,
      "nerv": 4005,
      "burn": 4006,
      "cure": 4007,
      "tv": 4008,
      "vast": 4009,
      "orient": 4010,
      "guar": 4011,
      "intention": 4012,
      "classes": 4013,
      "plays": 4014,
      "2020": 4015,
      "linger": 4016,
      "convince": 4017,
      "aur": 4018,
      "brow": 4019,
      "nations": 4020,
      "labe": 4021,
      "functional": 4022,
      "pix": 4023,
      "constant": 4024,
      "observe": 4025,
      "entrepreneur": 4026,
      "guarante": 4027,
      "cti": 4028,
      "hid": 4029,
      "herent": 4030,
      "diet": 4031,
      "obses": 4032,
      "components": 4033,
      "philosophers": 4034,
      "lands": 4035,
      "awareness": 4036,
      "town": 4037,
      "acces": 4038,
      "cares": 4039,
      "helpful": 4040,
      "decade": 4041,
      "molecule": 4042,
      "parallel": 4043,
      "survival": 4044,
      "mc": 4045,
      "relea": 4046,
      "wearing": 4047,
      "fell": 4048,
      "adding": 4049,
      "drives": 4050,
      "mono": 4051,
      "writer": 4052,
      "investment": 4053,
      "influen": 4054,
      "cultural": 4055,
      "gravitational": 4056,
      "cket": 4057,
      "vul": 4058,
      "lets": 4059,
      "addition": 4060,
      "painful": 4061,
      "library": 4062,
      "bla": 4063,
      "kar": 4064,
      "soli": 4065,
      "ently": 4066,
      "entity": 4067,
      "cep": 4068,
      "humility": 4069,
      "manif": 4070,
      "cycle": 4071,
      "calls": 4072,
      "chaos": 4073,
      "vil": 4074,
      "escape": 4075,
      "agon": 4076,
      "strict": 4077,
      "asks": 4078,
      "killing": 4079,
      "afghan": 4080,
      "yn": 4081,
      "thread": 4082,
      "remove": 4083,
      "till": 4084,
      "excell": 4085,
      "emphas": 4086,
      "magnet": 4087,
      "devices": 4088,
      "summar": 4089,
      "indeed": 4090,
      "geometry": 4091,
      "finger": 4092,
      "citiz": 4093,
      "sick": 4094,
      "xic": 4095,
      "acters": 4096,
      "neo": 4097,
      "istics": 4098,
      "discourse": 4099,
      "desp": 4100,
      "bias": 4101,
      "hopeful": 4102,
      "opening": 4103,
      "characters": 4104,
      "holding": 4105,
      "technique": 4106,
      "distinction": 4107,
      "trajectory": 4108,
      "weather": 4109,
      "metaphor": 4110,
      "nervous": 4111,
      "70": 4112,
      "actors": 4113,
      "spaces": 4114,
      "minis": 4115,
      "drink": 4116,
      "reflect": 4117,
      "bridge": 4118,
      "department": 4119,
      "lap": 4120,
      "vp": 4121,
      "wanting": 4122,
      "mechanical": 4123,
      "foundation": 4124,
      "expression": 4125,
      "script": 4126,
      "location": 4127,
      "spoken": 4128,
      "assumption": 4129,
      "phenomenon": 4130,
      "promise": 4131,
      "tensorflow": 4132,
      "bought": 4133,
      "sust": 4134,
      "destruction": 4135,
      "wik": 4136,
      "technically": 4137,
      "circle": 4138,
      "sophisticated": 4139,
      "scared": 4140,
      "closed": 4141,
      "cities": 4142,
      "fish": 4143,
      "rely": 4144,
      "artist": 4145,
      "rage": 4146,
      "generations": 4147,
      "apparent": 4148,
      "texas": 4149,
      "terrifying": 4150,
      "ocean": 4151,
      "lon": 4152,
      "sending": 4153,
      "ufo": 4154,
      "inev": 4155,
      "modif": 4156,
      "teles": 4157,
      "humble": 4158,
      "marke": 4159,
      "longterm": 4160,
      "vote": 4161,
      "mixed": 4162,
      "inevit": 4163,
      "noise": 4164,
      "dogs": 4165,
      "iring": 4166,
      "funding": 4167,
      "prefer": 4168,
      "viral": 4169,
      "fraction": 4170,
      "competing": 4171,
      "reduce": 4172,
      "ordinary": 4173,
      "climate": 4174,
      "fda": 4175,
      "hes": 4176,
      "iq": 4177,
      "iled": 4178,
      "stim": 4179,
      "unk": 4180,
      "whose": 4181,
      "lifetime": 4182,
      "cloud": 4183,
      "corrupt": 4184,
      "advance": 4185,
      "confident": 4186,
      "costs": 4187,
      "phenomena": 4188,
      "metric": 4189,
      "anci": 4190,
      "remark": 4191,
      "rot": 4192,
      "minded": 4193,
      "philosopher": 4194,
      "radical": 4195,
      "attacks": 4196,
      "tangent": 4197,
      "tremendous": 4198,
      "niet": 4199,
      "ping": 4200,
      "tweet": 4201,
      "zsche": 4202,
      "wel": 4203,
      "ceo": 4204,
      "poe": 4205,
      "agency": 4206,
      "shor": 4207,
      "spar": 4208,
      "comedy": 4209,
      "positions": 4210,
      "ength": 4211,
      "pause": 4212,
      "mindset": 4213,
      "crime": 4214,
      "institute": 4215,
      "passed": 4216,
      "analyze": 4217,
      "percentage": 4218,
      "execut": 4219,
      "circuit": 4220,
      "split": 4221,
      "vulner": 4222,
      "nietzsche": 4223,
      "link": 4224,
      "scar": 4225,
      "ene": 4226,
      "mobi": 4227,
      "yours": 4228,
      "genu": 4229,
      "interrupt": 4230,
      "belie": 4231,
      "trivi": 4232,
      "figures": 4233,
      "volu": 4234,
      "chap": 4235,
      "motivation": 4236,
      "customer": 4237,
      "anxiety": 4238,
      "zon": 4239,
      "ups": 4240,
      "igno": 4241,
      "fund": 4242,
      "communities": 4243,
      "industrial": 4244,
      "francis": 4245,
      "controversi": 4246,
      "ipedia": 4247,
      "wikipedia": 4248,
      "jap": 4249,
      "regi": 4250,
      "encies": 4251,
      "bell": 4252,
      "assign": 4253,
      "adjust": 4254,
      "grant": 4255,
      "ensity": 4256,
      "compete": 4257,
      "grade": 4258,
      "cards": 4259,
      "compiler": 4260,
      "atmosphere": 4261,
      "ja": 4262,
      "myth": 4263,
      "raise": 4264,
      "creatures": 4265,
      "operations": 4266,
      "services": 4267,
      "pilot": 4268,
      "fantastic": 4269,
      "temperature": 4270,
      "sustain": 4271,
      "echo": 4272,
      "intr": 4273,
      "plent": 4274,
      "realm": 4275,
      "compare": 4276,
      "experimental": 4277,
      "reveal": 4278,
      "colleagues": 4279,
      "circumstances": 4280,
      "cate": 4281,
      "var": 4282,
      "likes": 4283,
      "held": 4284,
      "hadn": 4285,
      "brand": 4286,
      "programmer": 4287,
      "shoot": 4288,
      "properly": 4289,
      "universities": 4290,
      "rocket": 4291,
      "ological": 4292,
      "sand": 4293,
      "bes": 4294,
      "external": 4295,
      "suit": 4296,
      "preser": 4297,
      "glad": 4298,
      "flip": 4299,
      "accessible": 4300,
      "vpn": 4301,
      "genuine": 4302,
      "controversial": 4303,
      "aper": 4304,
      "bble": 4305,
      "inct": 4306,
      "cope": 4307,
      "forts": 4308,
      "ifice": 4309,
      "unquote": 4310,
      "twice": 4311,
      "berg": 4312,
      "matrix": 4313,
      "russians": 4314,
      "broke": 4315,
      "marketing": 4316,
      "flex": 4317,
      "waymo": 4318,
      "spring": 4319,
      "elabor": 4320,
      "overall": 4321,
      "damage": 4322,
      "topi": 4323,
      "amazon": 4324,
      "identify": 4325,
      "multip": 4326,
      "occas": 4327,
      "picked": 4328,
      "entertain": 4329,
      "trillion": 4330,
      "gut": 4331,
      "zes": 4332,
      "anon": 4333,
      "amp": 4334,
      "partner": 4335,
      "surprise": 4336,
      "sentence": 4337,
      "fixed": 4338,
      "deliver": 4339,
      "released": 4340,
      "24": 4341,
      "due": 4342,
      "orrow": 4343,
      "cker": 4344,
      "crash": 4345,
      "prime": 4346,
      "tomorrow": 4347,
      "pushed": 4348,
      "olympics": 4349,
      "bacteria": 4350,
      "eli": 4351,
      "fru": 4352,
      "anno": 4353,
      "ater": 4354,
      "units": 4355,
      "agno": 4356,
      "finish": 4357,
      "tens": 4358,
      "minus": 4359,
      "classic": 4360,
      "amounts": 4361,
      "spoke": 4362,
      "puzzle": 4363,
      "mountain": 4364,
      "trivial": 4365,
      "pes": 4366,
      "lean": 4367,
      "peer": 4368,
      "phra": 4369,
      "restaur": 4370,
      "factors": 4371,
      "focusing": 4372,
      "expanding": 4373,
      "raised": 4374,
      "sacrifice": 4375,
      "despite": 4376,
      "plenty": 4377,
      "llow": 4378,
      "ert": 4379,
      "andrew": 4380,
      "arms": 4381,
      "dered": 4382,
      "division": 4383,
      "tribut": 4384,
      "iciency": 4385,
      "insane": 4386,
      "manipulate": 4387,
      "immune": 4388,
      "exec": 4389,
      "primary": 4390,
      "jim": 4391,
      "mill": 4392,
      "mber": 4393,
      "options": 4394,
      "represents": 4395,
      "button": 4396,
      "amine": 4397,
      "indic": 4398,
      "causes": 4399,
      "names": 4400,
      "fulfill": 4401,
      "appoint": 4402,
      "efforts": 4403,
      "police": 4404,
      "normally": 4405,
      "athe": 4406,
      "crow": 4407,
      "quiet": 4408,
      "cali": 4409,
      "labs": 4410,
      "radi": 4411,
      "genetics": 4412,
      "beliefs": 4413,
      "diversity": 4414,
      "hall": 4415,
      "lor": 4416,
      "anthro": 4417,
      "ander": 4418,
      "empi": 4419,
      "talent": 4420,
      "cult": 4421,
      "elsewhere": 4422,
      "interpretation": 4423,
      "tricky": 4424,
      "sufficiently": 4425,
      "navig": 4426,
      "commercial": 4427,
      "ffe": 4428,
      "nas": 4429,
      "wered": 4430,
      "tired": 4431,
      "guide": 4432,
      "comedi": 4433,
      "pair": 4434,
      "trial": 4435,
      "subst": 4436,
      "largely": 4437,
      "correctly": 4438,
      "anticip": 4439,
      "advertis": 4440,
      "sees": 4441,
      "pet": 4442,
      "ferences": 4443,
      "patient": 4444,
      "teacher": 4445,
      "richard": 4446,
      "sched": 4447,
      "ids": 4448,
      "compass": 4449,
      "autopi": 4450,
      "capability": 4451,
      "excit": 4452,
      "inspiration": 4453,
      "judge": 4454,
      "magnitude": 4455,
      "electro": 4456,
      "scenario": 4457,
      "believes": 4458,
      "las": 4459,
      "asset": 4460,
      "conference": 4461,
      "civil": 4462,
      "sharing": 4463,
      "intent": 4464,
      "africa": 4465,
      "autopilot": 4466,
      "fle": 4467,
      "length": 4468,
      "infe": 4469,
      "outcomes": 4470,
      "unbeliev": 4471,
      "homo": 4472,
      "poses": 4473,
      "embed": 4474,
      "grap": 4475,
      "naive": 4476,
      "relate": 4477,
      "facing": 4478,
      "opportunities": 4479,
      "70s": 4480,
      "han": 4481,
      "tho": 4482,
      "aly": 4483,
      "noticed": 4484,
      "rip": 4485,
      "convent": 4486,
      "cious": 4487,
      "surround": 4488,
      "colum": 4489,
      "handle": 4490,
      "investig": 4491,
      "predicting": 4492,
      "pulled": 4493,
      "poetry": 4494,
      "insur": 4495,
      "anda": 4496,
      "array": 4497,
      "shar": 4498,
      "channel": 4499,
      "ships": 4500,
      "green": 4501,
      "breaks": 4502,
      "defend": 4503,
      "athletes": 4504,
      "article": 4505,
      "convinced": 4506,
      "conservative": 4507,
      "bullshit": 4508,
      "volume": 4509,
      "flight": 4510,
      "swe": 4511,
      "inking": 4512,
      "robust": 4513,
      "neath": 4514,
      "idents": 4515,
      "underneath": 4516,
      "fram": 4517,
      "advoc": 4518,
      "window": 4519,
      "stronger": 4520,
      "statistics": 4521,
      "automata": 4522,
      "waste": 4523,
      "ancient": 4524,
      "elaborate": 4525,
      "60s": 4526,
      "cens": 4527,
      "hion": 4528,
      "iest": 4529,
      "wins": 4530,
      "tied": 4531,
      "iling": 4532,
      "married": 4533,
      "popul": 4534,
      "pictures": 4535,
      "assumptions": 4536,
      "insights": 4537,
      "variables": 4538,
      "exceptionally": 4539,
      "mile": 4540,
      "toward": 4541,
      "interests": 4542,
      "existed": 4543,
      "fighter": 4544,
      "calculation": 4545,
      "calculus": 4546,
      "east": 4547,
      "lis": 4548,
      "oil": 4549,
      "zen": 4550,
      "webs": 4551,
      "coding": 4552,
      "histori": 4553,
      "stands": 4554,
      "viewed": 4555,
      "modeling": 4556,
      "listened": 4557,
      "fiat": 4558,
      "ethics": 4559,
      "variety": 4560,
      "fought": 4561,
      "mr": 4562,
      "ppy": 4563,
      "izon": 4564,
      "specul": 4565,
      "assist": 4566,
      "monetary": 4567,
      "meditation": 4568,
      "fashion": 4569,
      "referring": 4570,
      "establish": 4571,
      "pound": 4572,
      "yep": 4573,
      "iron": 4574,
      "intense": 4575,
      "finance": 4576,
      "coron": 4577,
      "valley": 4578,
      "mathematically": 4579,
      "sources": 4580,
      "infinity": 4581,
      "integrated": 4582,
      "wolfram": 4583,
      "sensitive": 4584,
      "ino": 4585,
      "actor": 4586,
      "caught": 4587,
      "bob": 4588,
      "discount": 4589,
      "heads": 4590,
      "digit": 4591,
      "falling": 4592,
      "authority": 4593,
      "hanging": 4594,
      "excitement": 4595,
      "bright": 4596,
      "alge": 4597,
      "lig": 4598,
      "letting": 4599,
      "realistic": 4600,
      "dude": 4601,
      "arious": 4602,
      "visit": 4603,
      "visible": 4604,
      "parad": 4605,
      "transaction": 4606,
      "clever": 4607,
      "collapse": 4608,
      "gym": 4609,
      "kilo": 4610,
      "ats": 4611,
      "reverse": 4612,
      "unknown": 4613,
      "uncomfortable": 4614,
      "authen": 4615,
      "typical": 4616,
      "efficiency": 4617,
      "links": 4618,
      "inspire": 4619,
      "swift": 4620,
      "website": 4621,
      "bic": 4622,
      "dai": 4623,
      "ana": 4624,
      "attribut": 4625,
      "replace": 4626,
      "ays": 4627,
      "los": 4628,
      "izer": 4629,
      "medal": 4630,
      "productivity": 4631,
      "environments": 4632,
      "appears": 4633,
      "sensory": 4634,
      "sponsor": 4635,
      "transport": 4636,
      "hen": 4637,
      "nia": 4638,
      "washing": 4639,
      "suic": 4640,
      "plastic": 4641,
      "understands": 4642,
      "clust": 4643,
      "producing": 4644,
      "otes": 4645,
      "sexual": 4646,
      "consequence": 4647,
      "dictator": 4648,
      "singularity": 4649,
      "ml": 4650,
      "tt": 4651,
      "dox": 4652,
      "entities": 4653,
      "unlikely": 4654,
      "advis": 4655,
      "trip": 4656,
      "cheap": 4657,
      "communicating": 4658,
      "constit": 4659,
      "sensors": 4660,
      "maximize": 4661,
      "algebra": 4662,
      "ayn": 4663,
      "concrete": 4664,
      "max": 4665,
      "letter": 4666,
      "versions": 4667,
      "evolving": 4668,
      "ignor": 4669,
      "societies": 4670,
      "investing": 4671,
      "radar": 4672,
      "violent": 4673,
      "improvement": 4674,
      "21st": 4675,
      "hospital": 4676,
      "manifest": 4677,
      "mou": 4678,
      "ygen": 4679,
      "otic": 4680,
      "enjoyed": 4681,
      "status": 4682,
      "burden": 4683,
      "statistical": 4684,
      "afghanistan": 4685,
      "categor": 4686,
      "anonym": 4687,
      "fusion": 4688,
      "mart": 4689,
      "intim": 4690,
      "acts": 4691,
      "boom": 4692,
      "offline": 4693,
      "lane": 4694,
      "added": 4695,
      "platforms": 4696,
      "hoping": 4697,
      "metrics": 4698,
      "automated": 4699,
      "ecosystem": 4700,
      "candid": 4701,
      "tournament": 4702,
      "simpler": 4703,
      "authentic": 4704,
      "300": 4705,
      "cros": 4706,
      "comb": 4707,
      "boo": 4708,
      "pretend": 4709,
      "lawy": 4710,
      "appropri": 4711,
      "airplane": 4712,
      "hearing": 4713,
      "traveling": 4714,
      "schol": 4715,
      "observation": 4716,
      "aus": 4717,
      "option": 4718,
      "domains": 4719,
      "powers": 4720,
      "generating": 4721,
      "hip": 4722,
      "equals": 4723,
      "morph": 4724,
      "director": 4725,
      "standards": 4726,
      "daily": 4727,
      "consens": 4728,
      "whel": 4729,
      "guid": 4730,
      "curve": 4731,
      "counts": 4732,
      "drivers": 4733,
      "carl": 4734,
      "nucle": 4735,
      "authoritarian": 4736,
      "cameras": 4737,
      "academia": 4738,
      "censor": 4739,
      "consensus": 4740,
      "remote": 4741,
      "asp": 4742,
      "teen": 4743,
      "admit": 4744,
      "paul": 4745,
      "builds": 4746,
      "members": 4747,
      "investor": 4748,
      "electrons": 4749,
      "directions": 4750,
      "camp": 4751,
      "ians": 4752,
      "uries": 4753,
      "resolution": 4754,
      "itative": 4755,
      "selling": 4756,
      "advers": 4757,
      "overwhel": 4758,
      "timing": 4759,
      "flour": 4760,
      "facul": 4761,
      "approxim": 4762,
      "organizations": 4763,
      "apolog": 4764,
      "frankly": 4765,
      "enemy": 4766,
      "opt": 4767,
      "root": 4768,
      "moore": 4769,
      "pros": 4770,
      "whoever": 4771,
      "stephen": 4772,
      "electrical": 4773,
      "weapon": 4774,
      "expressvpn": 4775,
      "doctors": 4776,
      "rigorous": 4777,
      "2000": 4778,
      "bare": 4779,
      "tact": 4780,
      "zer": 4781,
      "thom": 4782,
      "instruct": 4783,
      "instruction": 4784,
      "army": 4785,
      "tie": 4786,
      "admi": 4787,
      "selfish": 4788,
      "centuries": 4789,
      "afford": 4790,
      "messy": 4791,
      "carbon": 4792,
      "destroyed": 4793,
      "materials": 4794,
      "picking": 4795,
      "iat": 4796,
      "mma": 4797,
      "np": 4798,
      "tok": 4799,
      "stone": 4800,
      "liqu": 4801,
      "heavi": 4802,
      "ambit": 4803,
      "pool": 4804,
      "ils": 4805,
      "phy": 4806,
      "ansion": 4807,
      "jection": 4808,
      "download": 4809,
      "hire": 4810,
      "warm": 4811,
      "hydro": 4812,
      "paths": 4813,
      "concerns": 4814,
      "pleasant": 4815,
      "satisf": 4816,
      "insurance": 4817,
      "gig": 4818,
      "md": 4819,
      "pac": 4820,
      "alco": 4821,
      "usions": 4822,
      "embar": 4823,
      "goods": 4824,
      "autonomy": 4825,
      "throwing": 4826,
      "employ": 4827,
      "passionate": 4828,
      "translation": 4829,
      "arbitrary": 4830,
      "apparently": 4831,
      "bure": 4832,
      "ns": 4833,
      "pun": 4834,
      "itate": 4835,
      "regret": 4836,
      "originally": 4837,
      "constrained": 4838,
      "british": 4839,
      "bureau": 4840,
      "thri": 4841,
      "polar": 4842,
      "comments": 4843,
      "ements": 4844,
      "workers": 4845,
      "partly": 4846,
      "augment": 4847,
      "importance": 4848,
      "monitor": 4849,
      "currencies": 4850,
      "mpto": 4851,
      "periods": 4852,
      "fortunate": 4853,
      "continuous": 4854,
      "apologize": 4855,
      "fare": 4856,
      "ib": 4857,
      "oting": 4858,
      "score": 4859,
      "inner": 4860,
      "weigh": 4861,
      "ams": 4862,
      "feyn": 4863,
      "bow": 4864,
      "reduc": 4865,
      "fascinated": 4866,
      "summer": 4867,
      "experiencing": 4868,
      "oxygen": 4869,
      "browser": 4870,
      "solid": 4871,
      "magnetic": 4872,
      "phrase": 4873,
      "faculty": 4874,
      "gger": 4875,
      "jan": 4876,
      "rors": 4877,
      "cance": 4878,
      "caused": 4879,
      "realizing": 4880,
      "overcome": 4881,
      "robotic": 4882,
      "harris": 4883,
      "cutting": 4884,
      "opinions": 4885,
      "chapter": 4886,
      "mouth": 4887,
      "feynman": 4888,
      "gans": 4889,
      "remain": 4890,
      "iss": 4891,
      "nodes": 4892,
      "arc": 4893,
      "notes": 4894,
      "unlike": 4895,
      "tel": 4896,
      "poem": 4897,
      "artists": 4898,
      "gray": 4899,
      "presence": 4900,
      "shown": 4901,
      "bottle": 4902,
      "broader": 4903,
      "customers": 4904,
      "uce": 4905,
      "receive": 4906,
      "section": 4907,
      "assets": 4908,
      "entro": 4909,
      "mentally": 4910,
      "frag": 4911,
      "horizon": 4912,
      "plug": 4913,
      "excellent": 4914,
      "iel": 4915,
      "ibility": 4916,
      "sar": 4917,
      "income": 4918,
      "compre": 4919,
      "ateful": 4920,
      "whom": 4921,
      "guit": 4922,
      "friction": 4923,
      "transis": 4924,
      "controlling": 4925,
      "chair": 4926,
      "chains": 4927,
      "followed": 4928,
      "banks": 4929,
      "buying": 4930,
      "struggling": 4931,
      "agreed": 4932,
      "historically": 4933,
      "placed": 4934,
      "conclusion": 4935,
      "ignore": 4936,
      "fab": 4937,
      "kick": 4938,
      "default": 4939,
      "bother": 4940,
      "ague": 4941,
      "grateful": 4942,
      "athlete": 4943,
      "charis": 4944,
      "predictable": 4945,
      "schools": 4946,
      "filter": 4947,
      "improving": 4948,
      "remarkable": 4949,
      "occasion": 4950,
      "dating": 4951,
      "hill": 4952,
      "ko": 4953,
      "sey": 4954,
      "aron": 4955,
      "justice": 4956,
      "calm": 4957,
      "avir": 4958,
      "statements": 4959,
      "variants": 4960,
      "limitations": 4961,
      "simulations": 4962,
      "deterministic": 4963,
      "hierarchy": 4964,
      "fruit": 4965,
      "schedu": 4966,
      "jun": 4967,
      "react": 4968,
      "ingu": 4969,
      "decre": 4970,
      "adminis": 4971,
      "offic": 4972,
      "subtle": 4973,
      "fuel": 4974,
      "region": 4975,
      "males": 4976,
      "involve": 4977,
      "rockets": 4978,
      "mobile": 4979,
      "embarr": 4980,
      "gates": 4981,
      "thres": 4982,
      "eness": 4983,
      "station": 4984,
      "seas": 4985,
      "spac": 4986,
      "fool": 4987,
      "licity": 4988,
      "foreign": 4989,
      "offer": 4990,
      "serve": 4991,
      "creator": 4992,
      "pride": 4993,
      "optimism": 4994,
      "drawn": 4995,
      "aggreg": 4996,
      "manipul": 4997,
      "java": 4998,
      "coronavir": 4999,
      "instructions": 5000,
      "pages": 5001,
      "island": 5002,
      "usive": 5003,
      "tric": 5004,
      "plants": 5005,
      "counting": 5006,
      "primit": 5007,
      "presented": 5008,
      "factory": 5009,
      "leaving": 5010,
      "planetary": 5011,
      "includes": 5012,
      "manipulation": 5013,
      "adopt": 5014,
      "biden": 5015,
      "elimin": 5016,
      "primitive": 5017,
      "22": 5018,
      "30s": 5019,
      "bum": 5020,
      "itory": 5021,
      "adult": 5022,
      "geno": 5023,
      "prepar": 5024,
      "command": 5025,
      "programmers": 5026,
      "include": 5027,
      "suspect": 5028,
      "precisely": 5029,
      "propaganda": 5030,
      "contrast": 5031,
      "compassion": 5032,
      "guitar": 5033,
      "threshold": 5034,
      "ape": 5035,
      "rab": 5036,
      "vlad": 5037,
      "encourage": 5038,
      "rooms": 5039,
      "chimp": 5040,
      "essence": 5041,
      "disappoint": 5042,
      "crack": 5043,
      "courses": 5044,
      "eleg": 5045,
      "opened": 5046,
      "publicly": 5047,
      "explaining": 5048,
      "matches": 5049,
      "characteristics": 5050,
      "provides": 5051,
      "neighbor": 5052,
      "suicide": 5053,
      "flaws": 5054,
      "mm": 5055,
      "infer": 5056,
      "hair": 5057,
      "dows": 5058,
      "combat": 5059,
      "empower": 5060,
      "plaus": 5061,
      "letters": 5062,
      "entimes": 5063,
      "volun": 5064,
      "legs": 5065,
      "vacu": 5066,
      "catastro": 5067,
      "emerges": 5068,
      "integrate": 5069,
      "debt": 5070,
      "significantly": 5071,
      "pedest": 5072,
      "reduci": 5073,
      "pursue": 5074,
      "pursuit": 5075,
      "oftentimes": 5076,
      "discipline": 5077,
      "iphone": 5078,
      "pill": 5079,
      "sw": 5080,
      "inject": 5081,
      "leverage": 5082,
      "below": 5083,
      "asy": 5084,
      "wire": 5085,
      "articul": 5086,
      "ders": 5087,
      "expansion": 5088,
      "coins": 5089,
      "icious": 5090,
      "discussions": 5091,
      "discovering": 5092,
      "crucial": 5093,
      "criticize": 5094,
      "maximum": 5095,
      "evalu": 5096,
      "skeptical": 5097,
      "bag": 5098,
      "meal": 5099,
      "cher": 5100,
      "ultra": 5101,
      "sig": 5102,
      "reser": 5103,
      "saving": 5104,
      "former": 5105,
      "minor": 5106,
      "aught": 5107,
      "hunger": 5108,
      "ctors": 5109,
      "represented": 5110,
      "falls": 5111,
      "discuss": 5112,
      "burning": 5113,
      "observing": 5114,
      "electricity": 5115,
      "bomb": 5116,
      "conduct": 5117,
      "anthropo": 5118,
      "empire": 5119,
      "ium": 5120,
      "jac": 5121,
      "uary": 5122,
      "inherent": 5123,
      "ening": 5124,
      "span": 5125,
      "format": 5126,
      "finished": 5127,
      "carefully": 5128,
      "simplest": 5129,
      "politicians": 5130,
      "strongly": 5131,
      "horse": 5132,
      "sato": 5133,
      "weights": 5134,
      "complain": 5135,
      "assuming": 5136,
      "consumer": 5137,
      "prepared": 5138,
      "fts": 5139,
      "iers": 5140,
      "jes": 5141,
      "stret": 5142,
      "utility": 5143,
      "covered": 5144,
      "shif": 5145,
      "jewish": 5146,
      "france": 5147,
      "defining": 5148,
      "tested": 5149,
      "connects": 5150,
      "organized": 5151,
      "representations": 5152,
      "origins": 5153,
      "measuring": 5154,
      "mysterious": 5155,
      "management": 5156,
      "embrace": 5157,
      "instrument": 5158,
      "restaurant": 5159,
      "paradig": 5160,
      "rist": 5161,
      "resh": 5162,
      "descend": 5163,
      "instinct": 5164,
      "scaling": 5165,
      "lecture": 5166,
      "dinner": 5167,
      "resistance": 5168,
      "breakthroughs": 5169,
      "vacuum": 5170,
      "sph": 5171,
      "reject": 5172,
      "loving": 5173,
      "ches": 5174,
      "neutr": 5175,
      "propos": 5176,
      "wheel": 5177,
      "igr": 5178,
      "diagno": 5179,
      "generated": 5180,
      "generative": 5181,
      "communist": 5182,
      "election": 5183,
      "crap": 5184,
      "fourth": 5185,
      "aircraft": 5186,
      "greek": 5187,
      "motivated": 5188,
      "mirror": 5189,
      "empirical": 5190,
      "bay": 5191,
      "gam": 5192,
      "doge": 5193,
      "dosto": 5194,
      "chron": 5195,
      "ours": 5196,
      "igning": 5197,
      "firm": 5198,
      "involves": 5199,
      "capitalist": 5200,
      "filled": 5201,
      "washington": 5202,
      "kers": 5203,
      "acknowledge": 5204,
      "rolling": 5205,
      "maps": 5206,
      "derive": 5207,
      "differenti": 5208,
      "downs": 5209,
      "lax": 5210,
      "owner": 5211,
      "gged": 5212,
      "fairness": 5213,
      "achieved": 5214,
      "threats": 5215,
      "meetings": 5216,
      "birds": 5217,
      "african": 5218,
      "christianity": 5219,
      "promising": 5220,
      "explicitly": 5221,
      "gent": 5222,
      "sate": 5223,
      "theor": 5224,
      "poet": 5225,
      "contrad": 5226,
      "trav": 5227,
      "mainst": 5228,
      "phil": 5229,
      "channe": 5230,
      "park": 5231,
      "traff": 5232,
      "harsh": 5233,
      "philosophically": 5234,
      "distinct": 5235,
      "automatically": 5236,
      "frequency": 5237,
      "grappling": 5238,
      "conventional": 5239,
      "hus": 5240,
      "tren": 5241,
      "attract": 5242,
      "nowhere": 5243,
      "coded": 5244,
      "goti": 5245,
      "fellow": 5246,
      "negoti": 5247,
      "brown": 5248,
      "purposes": 5249,
      "portion": 5250,
      "ilibri": 5251,
      "simplicity": 5252,
      "plato": 5253,
      "mortal": 5254,
      "implementation": 5255,
      "minimum": 5256,
      "index": 5257,
      "primarily": 5258,
      "oriented": 5259,
      "mdma": 5260,
      "ki": 5261,
      "plot": 5262,
      "za": 5263,
      "ened": 5264,
      "sovere": 5265,
      "icing": 5266,
      "decent": 5267,
      "idi": 5268,
      "extract": 5269,
      "oking": 5270,
      "ounce": 5271,
      "basket": 5272,
      "compli": 5273,
      "senses": 5274,
      "settle": 5275,
      "cheaper": 5276,
      "developers": 5277,
      "mathematicians": 5278,
      "mathematician": 5279,
      "holds": 5280,
      "molecular": 5281,
      "nearly": 5282,
      "expertise": 5283,
      "criminal": 5284,
      "obsessed": 5285,
      "blame": 5286,
      "alcohol": 5287,
      "entropy": 5288,
      "pedestri": 5289,
      "satell": 5290,
      "mainstream": 5291,
      "traffic": 5292,
      "sovereign": 5293,
      "masks": 5294,
      "inputs": 5295,
      "attr": 5296,
      "mell": 5297,
      "metal": 5298,
      "sea": 5299,
      "managed": 5300,
      "court": 5301,
      "writes": 5302,
      "explained": 5303,
      "bott": 5304,
      "observer": 5305,
      "brave": 5306,
      "legitimate": 5307,
      "transparen": 5308,
      "ripple": 5309,
      "ination": 5310,
      "atically": 5311,
      "enem": 5312,
      "leak": 5313,
      "holo": 5314,
      "conven": 5315,
      "concentr": 5316,
      "dia": 5317,
      "desper": 5318,
      "veness": 5319,
      "translate": 5320,
      "morality": 5321,
      "regime": 5322,
      "james": 5323,
      "cultures": 5324,
      "liquid": 5325,
      "enemies": 5326,
      "ais": 5327,
      "nis": 5328,
      "rl": 5329,
      "uber": 5330,
      "motor": 5331,
      "tight": 5332,
      "plate": 5333,
      "steel": 5334,
      "constructed": 5335,
      "brothers": 5336,
      "dostoev": 5337,
      "daught": 5338,
      "nut": 5339,
      "punch": 5340,
      "rick": 5341,
      "bered": 5342,
      "nest": 5343,
      "construction": 5344,
      "commod": 5345,
      "upset": 5346,
      "spat": 5347,
      "opath": 5348,
      "numer": 5349,
      "planes": 5350,
      "deepmind": 5351,
      "friendly": 5352,
      "discussed": 5353,
      "psychiat": 5354,
      "dialo": 5355,
      "admire": 5356,
      "spacex": 5357,
      "cro": 5358,
      "nur": 5359,
      "site": 5360,
      "annot": 5361,
      "remind": 5362,
      "lican": 5363,
      "haust": 5364,
      "dose": 5365,
      "tration": 5366,
      "exhaust": 5367,
      "bots": 5368,
      "presum": 5369,
      "gather": 5370,
      "session": 5371,
      "elev": 5372,
      "equilibri": 5373,
      "researcher": 5374,
      "distingu": 5375,
      "walked": 5376,
      "optimizing": 5377,
      "allowing": 5378,
      "competence": 5379,
      "beneficial": 5380,
      "collaboration": 5381,
      "corporate": 5382,
      "symbolic": 5383,
      "arrive": 5384,
      "lonely": 5385,
      "pixels": 5386,
      "francisco": 5387,
      "travis": 5388,
      "dostoevsky": 5389,
      "gy": 5390,
      "unity": 5391,
      "cong": 5392,
      "podcasting": 5393,
      "searching": 5394,
      "momentum": 5395,
      "shoes": 5396,
      "grows": 5397,
      "fraud": 5398,
      "glass": 5399,
      "democratic": 5400,
      "echoes": 5401,
      "combine": 5402,
      "satoshi": 5403,
      "transparency": 5404,
      "bread": 5405,
      "dc": 5406,
      "gli": 5407,
      "ined": 5408,
      "leon": 5409,
      "dop": 5410,
      "ller": 5411,
      "peak": 5412,
      "irt": 5413,
      "marks": 5414,
      "patients": 5415,
      "cats": 5416,
      "resource": 5417,
      "emplo": 5418,
      "intrins": 5419,
      "advocate": 5420,
      "jer": 5421,
      "recep": 5422,
      "determ": 5423,
      "sucks": 5424,
      "estim": 5425,
      "estimate": 5426,
      "impressed": 5427,
      "fied": 5428,
      "198": 5429,
      "healthcare": 5430,
      "interviews": 5431,
      "automation": 5432,
      "thrown": 5433,
      "telescope": 5434,
      "scarcity": 5435,
      "nasa": 5436,
      "determine": 5437,
      "gary": 5438,
      "ots": 5439,
      "slo": 5440,
      "rey": 5441,
      "forgot": 5442,
      "rier": 5443,
      "cei": 5444,
      "reson": 5445,
      "ured": 5446,
      "margin": 5447,
      "hibit": 5448,
      "connecting": 5449,
      "distant": 5450,
      "supporting": 5451,
      "darwin": 5452,
      "representing": 5453,
      "diseases": 5454,
      "reduction": 5455,
      "european": 5456,
      "previously": 5457,
      "bis": 5458,
      "fif": 5459,
      "hits": 5460,
      "hedge": 5461,
      "assu": 5462,
      "edges": 5463,
      "ineff": 5464,
      "basics": 5465,
      "datab": 5466,
      "applies": 5467,
      "cycles": 5468,
      "muscle": 5469,
      "inesses": 5470,
      "businesses": 5471,
      "explosion": 5472,
      "static": 5473,
      "reached": 5474,
      "recording": 5475,
      "agreements": 5476,
      "delicious": 5477,
      "trees": 5478,
      "provided": 5479,
      "launched": 5480,
      "federal": 5481,
      "transparent": 5482,
      "formula": 5483,
      "landscape": 5484,
      "inevitable": 5485,
      "martin": 5486,
      "ckets": 5487,
      "eu": 5488,
      "rit": 5489,
      "rhy": 5490,
      "inference": 5491,
      "seed": 5492,
      "belong": 5493,
      "thinkers": 5494,
      "tery": 5495,
      "pertur": 5496,
      "imir": 5497,
      "seek": 5498,
      "compression": 5499,
      "march": 5500,
      "colors": 5501,
      "afterwards": 5502,
      "socialism": 5503,
      "grounded": 5504,
      "psychologically": 5505,
      "increased": 5506,
      "devil": 5507,
      "masterclass": 5508,
      "invas": 5509,
      "circuits": 5510,
      "chips": 5511,
      "grown": 5512,
      "dramatic": 5513,
      "appropriate": 5514,
      "employe": 5515,
      "hint": 5516,
      "ivi": 5517,
      "inc": 5518,
      "ingred": 5519,
      "ale": 5520,
      "river": 5521,
      "height": 5522,
      "anytime": 5523,
      "via": 5524,
      "spon": 5525,
      "differential": 5526,
      "spelled": 5527,
      "jews": 5528,
      "matt": 5529,
      "corner": 5530,
      "corrup": 5531,
      "chee": 5532,
      "regulation": 5533,
      "drinking": 5534,
      "conception": 5535,
      "successfully": 5536,
      "enjoying": 5537,
      "civili": 5538,
      "visualize": 5539,
      "rapidly": 5540,
      "attached": 5541,
      "hidden": 5542,
      "neocortex": 5543,
      "mam": 5544,
      "psi": 5545,
      "sin": 5546,
      "relax": 5547,
      "toler": 5548,
      "weinstein": 5549,
      "taste": 5550,
      "ryan": 5551,
      "blu": 5552,
      "transformation": 5553,
      "subset": 5554,
      "graphics": 5555,
      "representative": 5556,
      "dedic": 5557,
      "stayed": 5558,
      "darkness": 5559,
      "ukrainian": 5560,
      "minimal": 5561,
      "marxism": 5562,
      "dominant": 5563,
      "introduced": 5564,
      "budget": 5565,
      "vladimir": 5566,
      "ricul": 5567,
      "vation": 5568,
      "oracle": 5569,
      "secure": 5570,
      "lihood": 5571,
      "bear": 5572,
      "accum": 5573,
      "traged": 5574,
      "vill": 5575,
      "epstein": 5576,
      "memor": 5577,
      "pulling": 5578,
      "answering": 5579,
      "fasting": 5580,
      "behaviors": 5581,
      "abstractions": 5582,
      "recorded": 5583,
      "combined": 5584,
      "strategies": 5585,
      "efficiently": 5586,
      "floor": 5587,
      "providing": 5588,
      "vaccinated": 5589,
      "folding": 5590,
      "increasingly": 5591,
      "athletic": 5592,
      "califor": 5593,
      "plausible": 5594,
      "jesus": 5595,
      "snow": 5596,
      "reput": 5597,
      "semin": 5598,
      "keys": 5599,
      "dot": 5600,
      "dear": 5601,
      "mapping": 5602,
      "percept": 5603,
      "embo": 5604,
      "backwards": 5605,
      "prices": 5606,
      "windows": 5607,
      "charles": 5608,
      "competent": 5609,
      "photons": 5610,
      "campus": 5611,
      "invention": 5612,
      "treatment": 5613,
      "deliber": 5614,
      "copies": 5615,
      "enables": 5616,
      "engagement": 5617,
      "evaluate": 5618,
      "nesses": 5619,
      "temporary": 5620,
      "manufacturing": 5621,
      "sars": 5622,
      "vity": 5623,
      "sters": 5624,
      "arrow": 5625,
      "canada": 5626,
      "maths": 5627,
      "compat": 5628,
      "official": 5629,
      "joint": 5630,
      "lightning": 5631,
      "equally": 5632,
      "confused": 5633,
      "structured": 5634,
      "teachers": 5635,
      "friendship": 5636,
      "randomness": 5637,
      "combinator": 5638,
      "incentivi": 5639,
      "panpsych": 5640,
      "clarify": 5641,
      "articles": 5642,
      "route": 5643,
      "awful": 5644,
      "briefly": 5645,
      "hilarious": 5646,
      "knock": 5647,
      "compreh": 5648,
      "california": 5649,
      "pc": 5650,
      "reven": 5651,
      "itors": 5652,
      "began": 5653,
      "verses": 5654,
      "nowad": 5655,
      "cave": 5656,
      "holy": 5657,
      "kindness": 5658,
      "label": 5659,
      "gery": 5660,
      "missed": 5661,
      "generalize": 5662,
      "199": 5663,
      "busy": 5664,
      "closest": 5665,
      "clip": 5666,
      "minimize": 5667,
      "liberal": 5668,
      "equilibrium": 5669,
      "nowadays": 5670,
      "lam": 5671,
      "vable": 5672,
      "wid": 5673,
      "shr": 5674,
      "standpoint": 5675,
      "bucks": 5676,
      "prag": 5677,
      "intern": 5678,
      "interfaces": 5679,
      "torture": 5680,
      "smile": 5681,
      "bible": 5682,
      "20s": 5683,
      "shake": 5684,
      "steal": 5685,
      "conceptual": 5686,
      "hitting": 5687,
      "legacy": 5688,
      "mike": 5689,
      "neuralink": 5690,
      "trading": 5691,
      "predicate": 5692,
      "paradox": 5693,
      "jumping": 5694,
      "scow": 5695,
      "hypergraph": 5696,
      "trajectories": 5697,
      "corruption": 5698,
      "vulnerable": 5699,
      "annoying": 5700,
      "husband": 5701,
      "gb": 5702,
      "vas": 5703,
      "winter": 5704,
      "inj": 5705,
      "rose": 5706,
      "heli": 5707,
      "neither": 5708,
      "ressing": 5709,
      "rence": 5710,
      "tage": 5711,
      "ops": 5712,
      "economists": 5713,
      "occup": 5714,
      "accepted": 5715,
      "empty": 5716,
      "continues": 5717,
      "judgment": 5718,
      "surveill": 5719,
      "lisp": 5720,
      "occasionally": 5721,
      "cab": 5722,
      "gust": 5723,
      "jones": 5724,
      "memes": 5725,
      "haw": 5726,
      "roger": 5727,
      "trag": 5728,
      "boat": 5729,
      "marri": 5730,
      "pathetic": 5731,
      "netfli": 5732,
      "flag": 5733,
      "algorithmic": 5734,
      "closely": 5735,
      "protection": 5736,
      "measures": 5737,
      "claims": 5738,
      "captured": 5739,
      "aligned": 5740,
      "embedded": 5741,
      "schedule": 5742,
      "dopamine": 5743,
      "surveillance": 5744,
      "netflix": 5745,
      "400": 5746,
      "bage": 5747,
      "fresh": 5748,
      "grid": 5749,
      "lens": 5750,
      "pit": 5751,
      "vr": 5752,
      "yo": 5753,
      "zone": 5754,
      "inher": 5755,
      "steven": 5756,
      "sect": 5757,
      "accounts": 5758,
      "abs": 5759,
      "forcing": 5760,
      "thered": 5761,
      "hotel": 5762,
      "convert": 5763,
      "yester": 5764,
      "phic": 5765,
      "intended": 5766,
      "astero": 5767,
      "gency": 5768,
      "stepping": 5769,
      "daniel": 5770,
      "lectures": 5771,
      "reliable": 5772,
      "binary": 5773,
      "staying": 5774,
      "2016": 5775,
      "floating": 5776,
      "messages": 5777,
      "architectures": 5778,
      "families": 5779,
      "jokes": 5780,
      "exponentially": 5781,
      "soldiers": 5782,
      "yesterday": 5783,
      "egg": 5784,
      "hiring": 5785,
      "sne": 5786,
      "toxic": 5787,
      "loose": 5788,
      "absor": 5789,
      "moscow": 5790,
      "grat": 5791,
      "implic": 5792,
      "engaged": 5793,
      "correlated": 5794,
      "explored": 5795,
      "randomly": 5796,
      "calculate": 5797,
      "replicate": 5798,
      "infected": 5799,
      "japan": 5800,
      "categories": 5801,
      "scholar": 5802,
      "physi": 5803,
      "dual": 5804,
      "kha": 5805,
      "pink": 5806,
      "vm": 5807,
      "remem": 5808,
      "stages": 5809,
      "chose": 5810,
      "gee": 5811,
      "proving": 5812,
      "ush": 5813,
      "bold": 5814,
      "odds": 5815,
      "synap": 5816,
      "discrete": 5817,
      "designing": 5818,
      "mining": 5819,
      "uhan": 5820,
      "highlight": 5821,
      "advent": 5822,
      "graphic": 5823,
      "frames": 5824,
      "darpa": 5825,
      "crying": 5826,
      "increases": 5827,
      "tricks": 5828,
      "believing": 5829,
      "idiot": 5830,
      "thet": 5831,
      "rem": 5832,
      "ingly": 5833,
      "andro": 5834,
      "enlight": 5835,
      "meme": 5836,
      "kel": 5837,
      "forgotten": 5838,
      "trucking": 5839,
      "gging": 5840,
      "childhood": 5841,
      "painting": 5842,
      "repeat": 5843,
      "scenarios": 5844,
      "slavery": 5845,
      "fulfilling": 5846,
      "constitution": 5847,
      "coronavirus": 5848,
      "gd": 5849,
      "jail": 5850,
      "nutr": 5851,
      "resili": 5852,
      "node": 5853,
      "semi": 5854,
      "likelihood": 5855,
      "wired": 5856,
      "pocket": 5857,
      "perman": 5858,
      "ira": 5859,
      "resent": 5860,
      "divide": 5861,
      "undergrad": 5862,
      "england": 5863,
      "flash": 5864,
      "controls": 5865,
      "brian": 5866,
      "oted": 5867,
      "explanations": 5868,
      "contribute": 5869,
      "influenced": 5870,
      "citizens": 5871,
      "barely": 5872,
      "sarah": 5873,
      "fabric": 5874,
      "paradigm": 5875,
      "bie": 5876,
      "fits": 5877,
      "kic": 5878,
      "zom": 5879,
      "seat": 5880,
      "beating": 5881,
      "consume": 5882,
      "imper": 5883,
      "plas": 5884,
      "achi": 5885,
      "bubble": 5886,
      "desk": 5887,
      "babies": 5888,
      "applying": 5889,
      "relations": 5890,
      "bib": 5891,
      "biased": 5892,
      "privi": 5893,
      "cyn": 5894,
      "scales": 5895,
      "shooting": 5896,
      "speaks": 5897,
      "voices": 5898,
      "screwed": 5899,
      "committed": 5900,
      "amongst": 5901,
      "boundaries": 5902,
      "flavor": 5903,
      "hydrogen": 5904,
      "spatial": 5905,
      "remembered": 5906,
      "gift": 5907,
      "ix": 5908,
      "pace": 5909,
      "errors": 5910,
      "encounter": 5911,
      "segment": 5912,
      "arrest": 5913,
      "fection": 5914,
      "funds": 5915,
      "realization": 5916,
      "intervent": 5917,
      "lessly": 5918,
      "trucks": 5919,
      "governance": 5920,
      "functioning": 5921,
      "walks": 5922,
      "integrity": 5923,
      "destroying": 5924,
      "guarantee": 5925,
      "dialogue": 5926,
      "50s": 5927,
      "density": 5928,
      "wuhan": 5929,
      "unclear": 5930,
      "trash": 5931,
      "plans": 5932,
      "obama": 5933,
      "gordon": 5934,
      "signs": 5935,
      "signed": 5936,
      "angers": 5937,
      "addiction": 5938,
      "lexpodcast": 5939,
      "voting": 5940,
      "emergence": 5941,
      "cruel": 5942,
      "alphago": 5943,
      "synthesis": 5944,
      "regardless": 5945,
      "quarks": 5946,
      "charismatic": 5947,
      "daughter": 5948,
      "nutrition": 5949,
      "150": 5950,
      "lished": 5951,
      "rates": 5952,
      "repub": 5953,
      "onic": 5954,
      "encode": 5955,
      "lyr": 5956,
      "doors": 5957,
      "decl": 5958,
      "ifies": 5959,
      "unconscious": 5960,
      "extr": 5961,
      "supre": 5962,
      "ideology": 5963,
      "sensor": 5964,
      "marath": 5965,
      "numpy": 5966,
      "shel": 5967,
      "importantly": 5968,
      "fights": 5969,
      "founding": 5970,
      "passing": 5971,
      "sentences": 5972,
      "texts": 5973,
      "actively": 5974,
      "imagining": 5975,
      "racism": 5976,
      "television": 5977,
      "gpt3": 5978,
      "stimul": 5979,
      "overwhelming": 5980,
      "psilo": 5981,
      "republican": 5982,
      "42": 5983,
      "bond": 5984,
      "fis": 5985,
      "liness": 5986,
      "va": 5987,
      "andre": 5988,
      "robin": 5989,
      "thinker": 5990,
      "urs": 5991,
      "guil": 5992,
      "openai": 5993,
      "farther": 5994,
      "largest": 5995,
      "197": 5996,
      "soft": 5997,
      "commitment": 5998,
      "affects": 5999,
      "girls": 6000,
      "participate": 6001,
      "clubhouse": 6002,
      "bureaucracy": 6003,
      "perturb": 6004,
      "psilocy": 6005,
      "hide": 6006,
      "kins": 6007,
      "acies": 6008,
      "chick": 6009,
      "proposed": 6010,
      "tracking": 6011,
      "upload": 6012,
      "divid": 6013,
      "illa": 6014,
      "offs": 6015,
      "thoughtful": 6016,
      "processor": 6017,
      "paint": 6018,
      "gradient": 6019,
      "recognized": 6020,
      "acceptable": 6021,
      "intellectually": 6022,
      "extraordinary": 6023,
      "simulated": 6024,
      "spiritual": 6025,
      "policies": 6026,
      "swim": 6027,
      "executive": 6028,
      "censorship": 6029,
      "adversari": 6030,
      "presumably": 6031,
      "psilocybin": 6032,
      "ired": 6033,
      "jam": 6034,
      "oth": 6035,
      "wine": 6036,
      "reactions": 6037,
      "loqu": 6038,
      "heur": 6039,
      "modu": 6040,
      "wherever": 6041,
      "bles": 6042,
      "disagreement": 6043,
      "prince": 6044,
      "aud": 6045,
      "parties": 6046,
      "coinbase": 6047,
      "expressed": 6048,
      "reaching": 6049,
      "anec": 6050,
      "aneously": 6051,
      "balls": 6052,
      "continued": 6053,
      "strip": 6054,
      "determined": 6055,
      "jeffrey": 6056,
      "startups": 6057,
      "manufacture": 6058,
      "granted": 6059,
      "crowd": 6060,
      "easter": 6061,
      "gence": 6062,
      "gins": 6063,
      "kin": 6064,
      "loud": 6065,
      "ored": 6066,
      "rust": 6067,
      "ux": 6068,
      "utop": 6069,
      "severe": 6070,
      "unusual": 6071,
      "poll": 6072,
      "pointing": 6073,
      "choo": 6074,
      "attitude": 6075,
      "difficulty": 6076,
      "writers": 6077,
      "specialized": 6078,
      "describes": 6079,
      "proofs": 6080,
      "considering": 6081,
      "observed": 6082,
      "predictive": 6083,
      "rolls": 6084,
      "accuracy": 6085,
      "loops": 6086,
      "journalists": 6087,
      "clinical": 6088,
      "nazi": 6089,
      "investors": 6090,
      "heavily": 6091,
      "administration": 6092,
      "adversarial": 6093,
      "anecdo": 6094,
      "45": 6095,
      "fro": 6096,
      "mouse": 6097,
      "smell": 6098,
      "vey": 6099,
      "coca": 6100,
      "roman": 6101,
      "creep": 6102,
      "generates": 6103,
      "learns": 6104,
      "transmit": 6105,
      "opens": 6106,
      "ski": 6107,
      "explains": 6108,
      "treated": 6109,
      "galaxies": 6110,
      "hierarchical": 6111,
      "acquire": 6112,
      "temporal": 6113,
      "radiation": 6114,
      "pounds": 6115,
      "tragic": 6116,
      "cart": 6117,
      "lunch": 6118,
      "ole": 6119,
      "encour": 6120,
      "utter": 6121,
      "editing": 6122,
      "powered": 6123,
      "thermo": 6124,
      "myst": 6125,
      "viro": 6126,
      "brut": 6127,
      "funded": 6128,
      "clue": 6129,
      "crew": 6130,
      "creature": 6131,
      "programmed": 6132,
      "sites": 6133,
      "eleph": 6134,
      "venture": 6135,
      "semantic": 6136,
      "screw": 6137,
      "emerged": 6138,
      "infinitely": 6139,
      "captures": 6140,
      "anarchist": 6141,
      "instruments": 6142,
      "sharp": 6143,
      "embarrass": 6144,
      "cynical": 6145,
      "joking": 6146,
      "kim": 6147,
      "ug": 6148,
      "colli": 6149,
      "female": 6150,
      "adults": 6151,
      "quir": 6152,
      "uration": 6153,
      "seeking": 6154,
      "believer": 6155,
      "tribe": 6156,
      "produces": 6157,
      "definitions": 6158,
      "operates": 6159,
      "nonsense": 6160,
      "arguing": 6161,
      "billionai": 6162,
      "worthy": 6163,
      "emerging": 6164,
      "detection": 6165,
      "parent": 6166,
      "libraries": 6167,
      "lenin": 6168,
      "routine": 6169,
      "citizen": 6170,
      "database": 6171,
      "tragedy": 6172,
      "dm": 6173,
      "gate": 6174,
      "kne": 6175,
      "mans": 6176,
      "odo": 6177,
      "pis": 6178,
      "twee": 6179,
      "arrog": 6180,
      "trau": 6181,
      "worries": 6182,
      "maker": 6183,
      "storage": 6184,
      "chosen": 6185,
      "spacecraft": 6186,
      "blink": 6187,
      "reasonably": 6188,
      "faced": 6189,
      "hungry": 6190,
      "predicted": 6191,
      "cruise": 6192,
      "strings": 6193,
      "emotionally": 6194,
      "implemented": 6195,
      "guns": 6196,
      "fluid": 6197,
      "convincing": 6198,
      "joined": 6199,
      "documentary": 6200,
      "multiply": 6201,
      "comedian": 6202,
      "historian": 6203,
      "genocide": 6204,
      "congress": 6205,
      "lyrics": 6206,
      "dated": 6207,
      "slower": 6208,
      "sector": 6209,
      "tray": 6210,
      "suck": 6211,
      "tape": 6212,
      "bucket": 6213,
      "senior": 6214,
      "apes": 6215,
      "creators": 6216,
      "farm": 6217,
      "fundamentals": 6218,
      "drama": 6219,
      "bush": 6220,
      "strike": 6221,
      "affected": 6222,
      "observations": 6223,
      "bonds": 6224,
      "aristo": 6225,
      "ctious": 6226,
      "shorter": 6227,
      "execution": 6228,
      "ambitious": 6229,
      "fifth": 6230,
      "gers": 6231,
      "kit": 6232,
      "rs": 6233,
      "zu": 6234,
      "asleep": 6235,
      "ache": 6236,
      "butter": 6237,
      "proven": 6238,
      "adds": 6239,
      "grass": 6240,
      "partners": 6241,
      "guest": 6242,
      "bets": 6243,
      "display": 6244,
      "mature": 6245,
      "archive": 6246,
      "tribal": 6247,
      "carried": 6248,
      "bath": 6249,
      "transcend": 6250,
      "generalization": 6251,
      "mush": 6252,
      "dragon": 6253,
      "leaves": 6254,
      "coupled": 6255,
      "discussing": 6256,
      "sleeping": 6257,
      "starcraft": 6258,
      "episod": 6259,
      "theoretically": 6260,
      "emails": 6261,
      "flawed": 6262,
      "collecting": 6263,
      "slip": 6264,
      "sacrific": 6265,
      "infectious": 6266,
      "invasion": 6267,
      "mate": 6268,
      "sweet": 6269,
      "thes": 6270,
      "escap": 6271,
      "acing": 6272,
      "cere": 6273,
      "hook": 6274,
      "proced": 6275,
      "elite": 6276,
      "bugs": 6277,
      "engines": 6278,
      "timescal": 6279,
      "custo": 6280,
      "organize": 6281,
      "dimin": 6282,
      "pipe": 6283,
      "educated": 6284,
      "phosph": 6285,
      "dave": 6286,
      "revolutionary": 6287,
      "garbage": 6288,
      "ibm": 6289,
      "reducibility": 6290,
      "descendants": 6291,
      "achiev": 6292,
      "trauma": 6293,
      "dust": 6294,
      "dir": 6295,
      "hated": 6296,
      "kn": 6297,
      "kgb": 6298,
      "tends": 6299,
      "token": 6300,
      "useless": 6301,
      "update": 6302,
      "sympto": 6303,
      "worker": 6304,
      "forming": 6305,
      "drilling": 6306,
      "definitive": 6307,
      "landing": 6308,
      "dreaming": 6309,
      "educate": 6310,
      "behavioral": 6311,
      "measurement": 6312,
      "mentor": 6313,
      "locked": 6314,
      "inspires": 6315,
      "immigr": 6316,
      "qualities": 6317,
      "netscape": 6318,
      "transportation": 6319,
      "monitoring": 6320,
      "stretch": 6321,
      "bry": 6322,
      "lou": 6323,
      "ison": 6324,
      "arise": 6325,
      "keley": 6326,
      "acles": 6327,
      "christ": 6328,
      "convol": 6329,
      "immortality": 6330,
      "erson": 6331,
      "berkeley": 6332,
      "interactive": 6333,
      "rush": 6334,
      "movements": 6335,
      "equip": 6336,
      "leged": 6337,
      "deaths": 6338,
      "impactful": 6339,
      "invested": 6340,
      "metic": 6341,
      "2008": 6342,
      "linked": 6343,
      "records": 6344,
      "debates": 6345,
      "consumption": 6346,
      "britain": 6347,
      "institutional": 6348,
      "marriage": 6349,
      "choosing": 6350,
      "dut": 6351,
      "hmm": 6352,
      "latest": 6353,
      "pse": 6354,
      "pir": 6355,
      "tan": 6356,
      "weir": 6357,
      "ribly": 6358,
      "und": 6359,
      "india": 6360,
      "urban": 6361,
      "sapi": 6362,
      "everyday": 6363,
      "distor": 6364,
      "server": 6365,
      "badly": 6366,
      "wondering": 6367,
      "fails": 6368,
      "ancestors": 6369,
      "appreciation": 6370,
      "spike": 6371,
      "integration": 6372,
      "assess": 6373,
      "mutation": 6374,
      "racist": 6375,
      "trillions": 6376,
      "deserve": 6377,
      "unbelievable": 6378,
      "aggregate": 6379,
      "anthropomorph": 6380,
      "poetic": 6381,
      "channels": 6382,
      "revenue": 6383,
      "iraq": 6384,
      "border": 6385,
      "hig": 6386,
      "jup": 6387,
      "nick": 6388,
      "snap": 6389,
      "liver": 6390,
      "cosm": 6391,
      "immen": 6392,
      "implicit": 6393,
      "stops": 6394,
      "pointed": 6395,
      "jet": 6396,
      "warri": 6397,
      "superhuman": 6398,
      "shock": 6399,
      "variance": 6400,
      "jujitsu": 6401,
      "shitty": 6402,
      "profession": 6403,
      "frameworks": 6404,
      "2014": 6405,
      "causality": 6406,
      "terrified": 6407,
      "introduction": 6408,
      "football": 6409,
      "therapist": 6410,
      "repet": 6411,
      "persist": 6412,
      "scheme": 6413,
      "fingers": 6414,
      "established": 6415,
      "additional": 6416,
      "anticipate": 6417,
      "anonymous": 6418,
      "gigantic": 6419,
      "elegant": 6420,
      "khabib": 6421,
      "immense": 6422,
      "35": 6423,
      "bind": 6424,
      "fizer": 6425,
      "pion": 6426,
      "pfizer": 6427,
      "zard": 6428,
      "isra": 6429,
      "encoun": 6430,
      "lift": 6431,
      "lidar": 6432,
      "becker": 6433,
      "lowest": 6434,
      "defe": 6435,
      "chic": 6436,
      "caust": 6437,
      "neu": 6438,
      "pover": 6439,
      "exposed": 6440,
      "ounced": 6441,
      "sciences": 6442,
      "posit": 6443,
      "surely": 6444,
      "carries": 6445,
      "transmission": 6446,
      "missions": 6447,
      "developer": 6448,
      "regions": 6449,
      "cube": 6450,
      "shaped": 6451,
      "excuse": 6452,
      "variation": 6453,
      "woke": 6454,
      "dependence": 6455,
      "drawing": 6456,
      "alphazero": 6457,
      "mysteries": 6458,
      "occurred": 6459,
      "heroes": 6460,
      "compilers": 6461,
      "anarchism": 6462,
      "conclusions": 6463,
      "benchmark": 6464,
      "genuinely": 6465,
      "transistors": 6466,
      "officer": 6467,
      "pedestrians": 6468,
      "ral": 6469,
      "tall": 6470,
      "invisible": 6471,
      "altru": 6472,
      "album": 6473,
      "nose": 6474,
      "editor": 6475,
      "coal": 6476,
      "lla": 6477,
      "llvm": 6478,
      "ulsion": 6479,
      "iran": 6480,
      "sures": 6481,
      "artif": 6482,
      "boss": 6483,
      "whoa": 6484,
      "chances": 6485,
      "comparis": 6486,
      "computations": 6487,
      "laid": 6488,
      "engaging": 6489,
      "install": 6490,
      "clothes": 6491,
      "textbook": 6492,
      "variant": 6493,
      "exploit": 6494,
      "smoke": 6495,
      "smooth": 6496,
      "roads": 6497,
      "galile": 6498,
      "immediate": 6499,
      "committe": 6500,
      "novelty": 6501,
      "founders": 6502,
      "benchmarks": 6503,
      "frustrating": 6504,
      "labels": 6505,
      "lawyers": 6506,
      "augmentation": 6507,
      "dogecoin": 6508,
      "convenient": 6509,
      "ceiving": 6510,
      "reputation": 6511,
      "compatible": 6512,
      "android": 6513,
      "eastern": 6514,
      "higgs": 6515,
      "lun": 6516,
      "oph": 6517,
      "vital": 6518,
      "thal": 6519,
      "topo": 6520,
      "enh": 6521,
      "ender": 6522,
      "stones": 6523,
      "abuse": 6524,
      "coast": 6525,
      "ria": 6526,
      "agencies": 6527,
      "theses": 6528,
      "ptic": 6529,
      "intermedi": 6530,
      "newsp": 6531,
      "mates": 6532,
      "universes": 6533,
      "finds": 6534,
      "smith": 6535,
      "apps": 6536,
      "submit": 6537,
      "shapes": 6538,
      "extend": 6539,
      "politically": 6540,
      "19th": 6541,
      "dropped": 6542,
      "appeared": 6543,
      "2012": 6544,
      "2015": 6545,
      "territory": 6546,
      "georgi": 6547,
      "introduce": 6548,
      "susp": 6549,
      "disciplines": 6550,
      "legitim": 6551,
      "protocols": 6552,
      "ingredients": 6553,
      "biz": 6554,
      "eld": 6555,
      "fc": 6556,
      "mice": 6557,
      "uated": 6558,
      "stability": 6559,
      "lever": 6560,
      "docum": 6561,
      "robert": 6562,
      "devi": 6563,
      "gogg": 6564,
      "ambig": 6565,
      "fewer": 6566,
      "humbling": 6567,
      "served": 6568,
      "arith": 6569,
      "instant": 6570,
      "trials": 6571,
      "prizes": 6572,
      "structural": 6573,
      "attacking": 6574,
      "angles": 6575,
      "winner": 6576,
      "nicely": 6577,
      "norms": 6578,
      "centric": 6579,
      "failures": 6580,
      "simplif": 6581,
      "throws": 6582,
      "sugar": 6583,
      "raising": 6584,
      "championship": 6585,
      "anarchy": 6586,
      "cosmos": 6587,
      "thomas": 6588,
      "holocaust": 6589,
      "documents": 6590,
      "ht": 6591,
      "hou": 6592,
      "pig": 6593,
      "rang": 6594,
      "senti": 6595,
      "theme": 6596,
      "ancy": 6597,
      "lip": 6598,
      "pest": 6599,
      "pol": 6600,
      "contem": 6601,
      "illegal": 6602,
      "deriv": 6603,
      "odd": 6604,
      "vibr": 6605,
      "gender": 6606,
      "clou": 6607,
      "correspond": 6608,
      "torch": 6609,
      "engineered": 6610,
      "shadow": 6611,
      "responding": 6612,
      "wallet": 6613,
      "dancing": 6614,
      "intuitions": 6615,
      "failing": 6616,
      "sister": 6617,
      "2001": 6618,
      "terminology": 6619,
      "constraint": 6620,
      "johnson": 6621,
      "deciding": 6622,
      "entrepreneurs": 6623,
      "navigate": 6624,
      "width": 6625,
      "pragmatic": 6626,
      "cers": 6627,
      "dive": 6628,
      "dick": 6629,
      "ik": 6630,
      "iable": 6631,
      "ost": 6632,
      "informed": 6633,
      "rever": 6634,
      "removed": 6635,
      "enrich": 6636,
      "mood": 6637,
      "tially": 6638,
      "pockets": 6639,
      "proposition": 6640,
      "excl": 6641,
      "quotes": 6642,
      "igen": 6643,
      "grain": 6644,
      "unix": 6645,
      "factual": 6646,
      "paris": 6647,
      "monkey": 6648,
      "coinc": 6649,
      "patri": 6650,
      "supported": 6651,
      "ondon": 6652,
      "lux": 6653,
      "expectation": 6654,
      "performing": 6655,
      "flows": 6656,
      "hurts": 6657,
      "statistically": 6658,
      "budd": 6659,
      "flexible": 6660,
      "cocaine": 6661,
      "equipment": 6662,
      "aes": 6663,
      "london": 6664,
      "scan": 6665,
      "restrict": 6666,
      "dome": 6667,
      "adap": 6668,
      "immortal": 6669,
      "thern": 6670,
      "saved": 6671,
      "pher": 6672,
      "tali": 6673,
      "redd": 6674,
      "ledger": 6675,
      "objec": 6676,
      "license": 6677,
      "solves": 6678,
      "socially": 6679,
      "icted": 6680,
      "highway": 6681,
      "surgery": 6682,
      "fame": 6683,
      "evolent": 6684,
      "checks": 6685,
      "distur": 6686,
      "payments": 6687,
      "follows": 6688,
      "similarly": 6689,
      "digits": 6690,
      "kills": 6691,
      "killer": 6692,
      "richer": 6693,
      "arguably": 6694,
      "metaverse": 6695,
      "aggression": 6696,
      "sales": 6697,
      "geometric": 6698,
      "nuanced": 6699,
      "package": 6700,
      "puzzles": 6701,
      "accelerate": 6702,
      "symbol": 6703,
      "colleague": 6704,
      "ratio": 6705,
      "isolated": 6706,
      "unbelievably": 6707,
      "compliment": 6708,
      "distinguish": 6709,
      "marathon": 6710,
      "chicago": 6711,
      "bizar": 6712,
      "kas": 6713,
      "lers": 6714,
      "muse": 6715,
      "piv": 6716,
      "rating": 6717,
      "vice": 6718,
      "acs": 6719,
      "causing": 6720,
      "pharm": 6721,
      "distr": 6722,
      "formulation": 6723,
      "presid": 6724,
      "warfare": 6725,
      "volcan": 6726,
      "handful": 6727,
      "kidding": 6728,
      "perspectives": 6729,
      "keyboard": 6730,
      "drove": 6731,
      "methodo": 6732,
      "accomplished": 6733,
      "elected": 6734,
      "lene": 6735,
      "peterson": 6736,
      "loneliness": 6737,
      "blowing": 6738,
      "ufos": 6739,
      "advisor": 6740,
      "neighborhood": 6741,
      "symptoms": 6742,
      "gpu": 6743,
      "kam": 6744,
      "mand": 6745,
      "ogen": 6746,
      "sna": 6747,
      "ui": 6748,
      "thus": 6749,
      "ication": 6750,
      "essay": 6751,
      "dozen": 6752,
      "notions": 6753,
      "dece": 6754,
      "gods": 6755,
      "imperfect": 6756,
      "sake": 6757,
      "precis": 6758,
      "reader": 6759,
      "sheet": 6760,
      "economist": 6761,
      "cataly": 6762,
      "linux": 6763,
      "delivery": 6764,
      "accurately": 6765,
      "occurs": 6766,
      "repeated": 6767,
      "corporations": 6768,
      "regulatory": 6769,
      "celebrate": 6770,
      "comedians": 6771,
      "january": 6772,
      "dmt": 6773,
      "cosmic": 6774,
      "galileo": 6775,
      "bone": 6776,
      "ica": 6777,
      "codes": 6778,
      "chest": 6779,
      "neil": 6780,
      "conce": 6781,
      "sip": 6782,
      "shirt": 6783,
      "epide": 6784,
      "bris": 6785,
      "overflow": 6786,
      "overlap": 6787,
      "interpre": 6788,
      "gaz": 6789,
      "easiest": 6790,
      "chase": 6791,
      "identified": 6792,
      "drag": 6793,
      "lized": 6794,
      "malice": 6795,
      "mainly": 6796,
      "horr": 6797,
      "collis": 6798,
      "personalities": 6799,
      "professors": 6800,
      "camps": 6801,
      "calculations": 6802,
      "anese": 6803,
      "innovations": 6804,
      "donate": 6805,
      "achievement": 6806,
      "unfortunate": 6807,
      "copes": 6808,
      "samples": 6809,
      "japanese": 6810,
      "execute": 6811,
      "virology": 6812,
      "dic": 6813,
      "mun": 6814,
      "rul": 6815,
      "alert": 6816,
      "mexic": 6817,
      "asym": 6818,
      "icism": 6819,
      "whatnot": 6820,
      "ament": 6821,
      "gevity": 6822,
      "unexpected": 6823,
      "foo": 6824,
      "nato": 6825,
      "parov": 6826,
      "defines": 6827,
      "remembering": 6828,
      "optimized": 6829,
      "payment": 6830,
      "circles": 6831,
      "recognizing": 6832,
      "theoretic": 6833,
      "fancy": 6834,
      "deadly": 6835,
      "boxes": 6836,
      "loyal": 6837,
      "pascal": 6838,
      "walls": 6839,
      "improved": 6840,
      "quarter": 6841,
      "longevity": 6842,
      "flexibility": 6843,
      "convolution": 6844,
      "jupiter": 6845,
      "taliban": 6846,
      "file": 6847,
      "gard": 6848,
      "irect": 6849,
      "pitch": 6850,
      "wra": 6851,
      "removing": 6852,
      "replac": 6853,
      "ister": 6854,
      "alan": 6855,
      "besides": 6856,
      "verify": 6857,
      "thereby": 6858,
      "unt": 6859,
      "trace": 6860,
      "aded": 6861,
      "embry": 6862,
      "intensity": 6863,
      "lifestyle": 6864,
      "fox": 6865,
      "twist": 6866,
      "sensing": 6867,
      "dates": 6868,
      "visually": 6869,
      "delay": 6870,
      "bia": 6871,
      "priors": 6872,
      "partially": 6873,
      "ucked": 6874,
      "captiv": 6875,
      "volat": 6876,
      "stell": 6877,
      "amazingly": 6878,
      "designer": 6879,
      "airport": 6880,
      "measured": 6881,
      "treating": 6882,
      "silver": 6883,
      "flies": 6884,
      "squared": 6885,
      "touching": 6886,
      "virtue": 6887,
      "advantages": 6888,
      "invited": 6889,
      "enterprise": 6890,
      "consistency": 6891,
      "rarely": 6892,
      "coordinate": 6893,
      "shortest": 6894,
      "talented": 6895,
      "prosper": 6896,
      "season": 6897,
      "inefficient": 6898,
      "employees": 6899,
      "guilty": 6900,
      "episodes": 6901,
      "phosphine": 6902,
      "poverty": 6903,
      "comparison": 6904,
      "kasparov": 6905,
      "precision": 6906,
      "eloqu": 6907,
      "gpus": 6908,
      "milli": 6909,
      "pile": 6910,
      "uity": 6911,
      "inn": 6912,
      "alous": 6913,
      "doom": 6914,
      "gosh": 6915,
      "ampl": 6916,
      "motive": 6917,
      "boot": 6918,
      "quad": 6919,
      "urable": 6920,
      "agricul": 6921,
      "compound": 6922,
      "manager": 6923,
      "lazy": 6924,
      "uniform": 6925,
      "aimed": 6926,
      "blank": 6927,
      "fasc": 6928,
      "identical": 6929,
      "stepped": 6930,
      "semant": 6931,
      "camus": 6932,
      "touched": 6933,
      "initi": 6934,
      "significance": 6935,
      "survived": 6936,
      "nihil": 6937,
      "nazis": 6938,
      "modify": 6939,
      "preserve": 6940,
      "candidates": 6941,
      "chicken": 6942,
      "adaptive": 6943,
      "bally": 6944,
      "tune": 6945,
      "threw": 6946,
      "soc": 6947,
      "cog": 6948,
      "chro": 6949,
      "conceive": 6950,
      "exo": 6951,
      "umps": 6952,
      "bored": 6953,
      "dip": 6954,
      "systematic": 6955,
      "preced": 6956,
      "problematic": 6957,
      "minsky": 6958,
      "runk": 6959,
      "2019": 6960,
      "brook": 6961,
      "specify": 6962,
      "shop": 6963,
      "organic": 6964,
      "criti": 6965,
      "trusted": 6966,
      "imagenet": 6967,
      "motivations": 6968,
      "parameter": 6969,
      "schiz": 6970,
      "apartment": 6971,
      "protected": 6972,
      "collaborate": 6973,
      "chemicals": 6974,
      "penn": 6975,
      "transformative": 6976,
      "heaven": 6977,
      "cosmology": 6978,
      "deployed": 6979,
      "prepare": 6980,
      "astronom": 6981,
      "astronaut": 6982,
      "dramatically": 6983,
      "welcome": 6984,
      "flourish": 6985,
      "bottlene": 6986,
      "implications": 6987,
      "plasma": 6988,
      "georgia": 6989,
      "23": 6990,
      "cort": 6991,
      "ears": 6992,
      "mim": 6993,
      "osci": 6994,
      "ub": 6995,
      "rer": 6996,
      "resolve": 6997,
      "eria": 6998,
      "alities": 6999,
      "willi": 7000,
      "cel": 7001,
      "extension": 7002,
      "ades": 7003,
      "tap": 7004,
      "tailed": 7005,
      "pron": 7006,
      "stored": 7007,
      "probabil": 7008,
      "2010": 7009,
      "superior": 7010,
      "hopeless": 7011,
      "breathe": 7012,
      "biologists": 7013,
      "shocking": 7014,
      "directed": 7015,
      "respected": 7016,
      "postdoc": 7017,
      "tendency": 7018,
      "accepting": 7019,
      "retro": 7020,
      "rounds": 7021,
      "scope": 7022,
      "nih": 7023,
      "strengths": 7024,
      "carrying": 7025,
      "electronics": 7026,
      "laughing": 7027,
      "academics": 7028,
      "hiding": 7029,
      "fragile": 7030,
      "reserve": 7031,
      "intrinsic": 7032,
      "incident": 7033,
      "enlighten": 7034,
      "sapiens": 7035,
      "committee": 7036,
      "ophren": 7037,
      "reddit": 7038,
      "bizarre": 7039,
      "schizophren": 7040,
      "oscill": 7041,
      "95": 7042,
      "clic": 7043,
      "mask": 7044,
      "nals": 7045,
      "ua": 7046,
      "vine": 7047,
      "loses": 7048,
      "entry": 7049,
      "outer": 7050,
      "outputs": 7051,
      "config": 7052,
      "adam": 7053,
      "anta": 7054,
      "kings": 7055,
      "grace": 7056,
      "spreading": 7057,
      "undergraduate": 7058,
      "dish": 7059,
      "distract": 7060,
      "centers": 7061,
      "simult": 7062,
      "correlation": 7063,
      "germans": 7064,
      "visited": 7065,
      "hello": 7066,
      "colate": 7067,
      "miser": 7068,
      "barry": 7069,
      "journals": 7070,
      "expectations": 7071,
      "satur": 7072,
      "cambridge": 7073,
      "2017": 7074,
      "johnny": 7075,
      "cardano": 7076,
      "strategic": 7077,
      "suppor": 7078,
      "massively": 7079,
      "propulsion": 7080,
      "boundary": 7081,
      "reveals": 7082,
      "suggested": 7083,
      "narratives": 7084,
      "atomic": 7085,
      "frustrated": 7086,
      "labeled": 7087,
      "emphasize": 7088,
      "sustainable": 7089,
      "catastrophic": 7090,
      "conducting": 7091,
      "internally": 7092,
      "sneak": 7093,
      "kicked": 7094,
      "clouds": 7095,
      "ido": 7096,
      "ience": 7097,
      "tack": 7098,
      "inform": 7099,
      "thesi": 7100,
      "organs": 7101,
      "sored": 7102,
      "soever": 7103,
      "vegas": 7104,
      "whatsoever": 7105,
      "proved": 7106,
      "irrational": 7107,
      "imer": 7108,
      "resses": 7109,
      "render": 7110,
      "worldview": 7111,
      "understandable": 7112,
      "clint": 7113,
      "longing": 7114,
      "owned": 7115,
      "singer": 7116,
      "rub": 7117,
      "drill": 7118,
      "checking": 7119,
      "breath": 7120,
      "fighters": 7121,
      "crappy": 7122,
      "scam": 7123,
      "environmental": 7124,
      "expressing": 7125,
      "axis": 7126,
      "crude": 7127,
      "scenes": 7128,
      "passive": 7129,
      "striking": 7130,
      "elementary": 7131,
      "bandwidth": 7132,
      "revealing": 7133,
      "mutations": 7134,
      "hatred": 7135,
      "electronic": 7136,
      "selected": 7137,
      "ctiveness": 7138,
      "summarize": 7139,
      "longest": 7140,
      "reducing": 7141,
      "decrease": 7142,
      "ownership": 7143,
      "sovereignty": 7144,
      "combinatorial": 7145,
      "ugly": 7146,
      "objectiv": 7147,
      "athing": 7148,
      "bye": 7149,
      "sd": 7150,
      "zos": 7151,
      "recall": 7152,
      "item": 7153,
      "ende": 7154,
      "encing": 7155,
      "solo": 7156,
      "liar": 7157,
      "beach": 7158,
      "roots": 7159,
      "unable": 7160,
      "unified": 7161,
      "neck": 7162,
      "agers": 7163,
      "agger": 7164,
      "tyson": 7165,
      "answered": 7166,
      "licen": 7167,
      "greatness": 7168,
      "pawn": 7169,
      "membr": 7170,
      "grams": 7171,
      "trail": 7172,
      "responds": 7173,
      "confusing": 7174,
      "stays": 7175,
      "battery": 7176,
      "fitness": 7177,
      "deepest": 7178,
      "phenomenal": 7179,
      "secrets": 7180,
      "observable": 7181,
      "opponents": 7182,
      "accidents": 7183,
      "colony": 7184,
      "laboratory": 7185,
      "desert": 7186,
      "cooking": 7187,
      "demonstrate": 7188,
      "monopoly": 7189,
      "plasticity": 7190,
      "inherently": 7191,
      "asteroid": 7192,
      "enlightenment": 7193,
      "bird": 7194,
      "dum": 7195,
      "yaron": 7196,
      "thor": 7197,
      "noon": 7198,
      "detailed": 7199,
      "someday": 7200,
      "tire": 7201,
      "justify": 7202,
      "perm": 7203,
      "quer": 7204,
      "timeline": 7205,
      "humanoid": 7206,
      "divis": 7207,
      "forest": 7208,
      "dismiss": 7209,
      "oblig": 7210,
      "interviewed": 7211,
      "compress": 7212,
      "serving": 7213,
      "sociopath": 7214,
      "apped": 7215,
      "visiting": 7216,
      "relates": 7217,
      "tribes": 7218,
      "missi": 7219,
      "truths": 7220,
      "famously": 7221,
      "successes": 7222,
      "extended": 7223,
      "hunter": 7224,
      "hydr": 7225,
      "drones": 7226,
      "balanced": 7227,
      "limiting": 7228,
      "progressive": 7229,
      "richness": 7230,
      "educational": 7231,
      "appealing": 7232,
      "constructing": 7233,
      "alexander": 7234,
      "depressed": 7235,
      "collected": 7236,
      "alternatives": 7237,
      "activities": 7238,
      "summary": 7239,
      "entertainment": 7240,
      "advertising": 7241,
      "assistant": 7242,
      "candidate": 7243,
      "satisfying": 7244,
      "signing": 7245,
      "proposal": 7246,
      "gentle": 7247,
      "synapses": 7248,
      "gdp": 7249,
      "resentment": 7250,
      "mystical": 7251,
      "rum": 7252,
      "ude": 7253,
      "wrap": 7254,
      "anom": 7255,
      "recur": 7256,
      "returns": 7257,
      "isa": 7258,
      "begins": 7259,
      "det": 7260,
      "forgetting": 7261,
      "feas": 7262,
      "catho": 7263,
      "tik": 7264,
      "persu": 7265,
      "bothered": 7266,
      "ideals": 7267,
      "cynic": 7268,
      "meditate": 7269,
      "paras": 7270,
      "traum": 7271,
      "headed": 7272,
      "presenting": 7273,
      "cogniz": 7274,
      "hunting": 7275,
      "196": 7276,
      "airplanes": 7277,
      "psychologist": 7278,
      "practically": 7279,
      "practices": 7280,
      "brilliance": 7281,
      "authors": 7282,
      "discoveries": 7283,
      "silence": 7284,
      "libert": 7285,
      "genesis": 7286,
      "printing": 7287,
      "modular": 7288,
      "convergence": 7289,
      "widely": 7290,
      "alignment": 7291,
      "churchill": 7292,
      "isolation": 7293,
      "telescopes": 7294,
      "surrounded": 7295,
      "tokens": 7296,
      "commodity": 7297,
      "marginal": 7298,
      "achieving": 7299,
      "catholic": 7300,
      "fucked": 7301,
      "rant": 7302,
      "tissue": 7303,
      "anes": 7304,
      "recru": 7305,
      "semic": 7306,
      "notation": 7307,
      "rocks": 7308,
      "coherent": 7309,
      "cage": 7310,
      "tier": 7311,
      "exam": 7312,
      "exten": 7313,
      "perfection": 7314,
      "quake": 7315,
      "emacs": 7316,
      "goodness": 7317,
      "disput": 7318,
      "disaster": 7319,
      "preference": 7320,
      "caring": 7321,
      "evolves": 7322,
      "chaotic": 7323,
      "skip": 7324,
      "founded": 7325,
      "societal": 7326,
      "greed": 7327,
      "argued": 7328,
      "included": 7329,
      "lsd": 7330,
      "innovative": 7331,
      "boxing": 7332,
      "agrees": 7333,
      "expanded": 7334,
      "grandfather": 7335,
      "assemble": 7336,
      "pandemics": 7337,
      "lifting": 7338,
      "transformer": 7339,
      "survey": 7340,
      "pixel": 7341,
      "historians": 7342,
      "teenager": 7343,
      "reduced": 7344,
      "preparation": 7345,
      "basketball": 7346,
      "satellites": 7347,
      "arithmetic": 7348,
      "december": 7349,
      "amed": 7350,
      "dge": 7351,
      "drunk": 7352,
      "iver": 7353,
      "oto": 7354,
      "phe": 7355,
      "sits": 7356,
      "tac": 7357,
      "thumb": 7358,
      "inch": 7359,
      "anthon": 7360,
      "recurrent": 7361,
      "escal": 7362,
      "locks": 7363,
      "outs": 7364,
      "outsid": 7365,
      "fork": 7366,
      "riding": 7367,
      "homes": 7368,
      "indirect": 7369,
      "projection": 7370,
      "proportion": 7371,
      "immer": 7372,
      "safer": 7373,
      "posing": 7374,
      "intersection": 7375,
      "descent": 7376,
      "manual": 7377,
      "shell": 7378,
      "rows": 7379,
      "fired": 7380,
      "regulate": 7381,
      "laying": 7382,
      "gradually": 7383,
      "expecting": 7384,
      "blockchains": 7385,
      "feeding": 7386,
      "aneous": 7387,
      "earliest": 7388,
      "publishing": 7389,
      "globally": 7390,
      "weaknesses": 7391,
      "conflicts": 7392,
      "poorly": 7393,
      "maintaining": 7394,
      "sticking": 7395,
      "strongest": 7396,
      "grip": 7397,
      "circuitry": 7398,
      "cluster": 7399,
      "ignorance": 7400,
      "lawyer": 7401,
      "articulate": 7402,
      "cartes": 7403,
      "elephant": 7404,
      "anthony": 7405,
      "award": 7406,
      "backed": 7407,
      "dre": 7408,
      "dor": 7409,
      "fans": 7410,
      "lp": 7411,
      "ufc": 7412,
      "inf": 7413,
      "inclin": 7414,
      "reminds": 7415,
      "stab": 7416,
      "mel": 7417,
      "chunk": 7418,
      "promote": 7419,
      "compromise": 7420,
      "shallow": 7421,
      "syna": 7422,
      "restrial": 7423,
      "disk": 7424,
      "hardcore": 7425,
      "blan": 7426,
      "cheating": 7427,
      "factories": 7428,
      "barrier": 7429,
      "effectiveness": 7430,
      "traditions": 7431,
      "computationally": 7432,
      "screaming": 7433,
      "eaten": 7434,
      "passes": 7435,
      "titled": 7436,
      "driverless": 7437,
      "simulating": 7438,
      "imagined": 7439,
      "pursuing": 7440,
      "emergency": 7441,
      "enormously": 7442,
      "magnus": 7443,
      "perceived": 7444,
      "storm": 7445,
      "entertaining": 7446,
      "column": 7447,
      "nucleus": 7448,
      "neutral": 7449,
      "panpsychism": 7450,
      "utopia": 7451,
      "brutal": 7452,
      "israel": 7453,
      "intermediate": 7454,
      "dun": 7455,
      "nie": 7456,
      "ancing": 7457,
      "atures": 7458,
      "reproduce": 7459,
      "veled": 7460,
      "weed": 7461,
      "cooperation": 7462,
      "heimer": 7463,
      "unpleasant": 7464,
      "indian": 7465,
      "trap": 7466,
      "ums": 7467,
      "admir": 7468,
      "boys": 7469,
      "sage": 7470,
      "endless": 7471,
      "bruce": 7472,
      "obst": 7473,
      "impul": 7474,
      "hired": 7475,
      "triangle": 7476,
      "connectivity": 7477,
      "definite": 7478,
      "farming": 7479,
      "attacked": 7480,
      "distances": 7481,
      "hybrid": 7482,
      "pathogen": 7483,
      "approaching": 7484,
      "sequences": 7485,
      "merge": 7486,
      "2007": 7487,
      "wrestle": 7488,
      "broadcast": 7489,
      "inventing": 7490,
      "protecting": 7491,
      "bounds": 7492,
      "reporting": 7493,
      "priority": 7494,
      "freaking": 7495,
      "navy": 7496,
      "astronomy": 7497,
      "laptop": 7498,
      "spark": 7499,
      "flew": 7500,
      "arrested": 7501,
      "supreme": 7502,
      "embarrassing": 7503,
      "cognizant": 7504,
      "jose": 7505,
      "sart": 7506,
      "theater": 7507,
      "remains": 7508,
      "ondu": 7509,
      "tower": 7510,
      "lego": 7511,
      "lective": 7512,
      "beer": 7513,
      "hacking": 7514,
      "dos": 7515,
      "copic": 7516,
      "decentral": 7517,
      "declar": 7518,
      "heide": 7519,
      "una": 7520,
      "propri": 7521,
      "upper": 7522,
      "gences": 7523,
      "preferences": 7524,
      "reads": 7525,
      "2021": 7526,
      "paraly": 7527,
      "velocity": 7528,
      "equality": 7529,
      "risc": 7530,
      "rising": 7531,
      "1980s": 7532,
      "greens": 7533,
      "competitions": 7534,
      "airs": 7535,
      "crystal": 7536,
      "impacts": 7537,
      "adequ": 7538,
      "photon": 7539,
      "masses": 7540,
      "genetically": 7541,
      "religions": 7542,
      "demons": 7543,
      "freak": 7544,
      "lady": 7545,
      "wealthy": 7546,
      "tweeted": 7547,
      "ffered": 7548,
      "cancel": 7549,
      "volunte": 7550,
      "attractive": 7551,
      "bluff": 7552,
      "adventure": 7553,
      "zombie": 7554,
      "intervention": 7555,
      "goggins": 7556,
      "domestic": 7557,
      "semicondu": 7558,
      "sartre": 7559,
      "40s": 7560,
      "bors": 7561,
      "cdc": 7562,
      "gul": 7563,
      "oes": 7564,
      "omed": 7565,
      "rint": 7566,
      "sle": 7567,
      "uous": 7568,
      "albert": 7569,
      "sean": 7570,
      "kest": 7571,
      "utili": 7572,
      "iment": 7573,
      "suffered": 7574,
      "wellbeing": 7575,
      "grasp": 7576,
      "epic": 7577,
      "manner": 7578,
      "probabilities": 7579,
      "generic": 7580,
      "elections": 7581,
      "russell": 7582,
      "classify": 7583,
      "responses": 7584,
      "stead": 7585,
      "competitors": 7586,
      "queen": 7587,
      "cuts": 7588,
      "deadline": 7589,
      "academy": 7590,
      "switched": 7591,
      "launching": 7592,
      "sacred": 7593,
      "contribution": 7594,
      "slice": 7595,
      "wolf": 7596,
      "trolling": 7597,
      "acquired": 7598,
      "vectors": 7599,
      "guaranteed": 7600,
      "employment": 7601,
      "received": 7602,
      "empowering": 7603,
      "theorists": 7604,
      "embodied": 7605,
      "encountered": 7606,
      "soccer": 7607,
      "schizophrenia": 7608,
      "tiktok": 7609,
      "heidegger": 7610,
      "cute": 7611,
      "fs": 7612,
      "jay": 7613,
      "nit": 7614,
      "pcr": 7615,
      "sque": 7616,
      "atroc": 7617,
      "request": 7618,
      "stro": 7619,
      "ortho": 7620,
      "nois": 7621,
      "mect": 7622,
      "asia": 7623,
      "accent": 7624,
      "abol": 7625,
      "riers": 7626,
      "makers": 7627,
      "sau": 7628,
      "mentality": 7629,
      "illustr": 7630,
      "betting": 7631,
      "avat": 7632,
      "seemingly": 7633,
      "trigger": 7634,
      "vene": 7635,
      "breathing": 7636,
      "musician": 7637,
      "muscles": 7638,
      "operator": 7639,
      "stealing": 7640,
      "mult": 7641,
      "competitor": 7642,
      "typing": 7643,
      "valued": 7644,
      "honesty": 7645,
      "matching": 7646,
      "sadness": 7647,
      "campa": 7648,
      "introspect": 7649,
      "reflection": 7650,
      "counterintuitive": 7651,
      "accountable": 7652,
      "streets": 7653,
      "automate": 7654,
      "journalism": 7655,
      "adoption": 7656,
      "converge": 7657,
      "stressful": 7658,
      "holly": 7659,
      "populace": 7660,
      "crossing": 7661,
      "eliminate": 7662,
      "extrater": 7663,
      "pissed": 7664,
      "pseu": 7665,
      "altruism": 7666,
      "clinton": 7667,
      "atrocities": 7668,
      "75": 7669,
      "bby": 7670,
      "hence": 7671,
      "nano": 7672,
      "vary": 7673,
      "thir": 7674,
      "attain": 7675,
      "itals": 7676,
      "ernest": 7677,
      "asi": 7678,
      "cock": 7679,
      "shed": 7680,
      "disrupt": 7681,
      "api": 7682,
      "asshole": 7683,
      "offering": 7684,
      "crut": 7685,
      "faction": 7686,
      "listeners": 7687,
      "italian": 7688,
      "charged": 7689,
      "193": 7690,
      "piano": 7691,
      "onda": 7692,
      "smartphone": 7693,
      "portal": 7694,
      "posts": 7695,
      "baseball": 7696,
      "loaded": 7697,
      "marxist": 7698,
      "scores": 7699,
      "dominate": 7700,
      "niche": 7701,
      "settings": 7702,
      "photos": 7703,
      "empathize": 7704,
      "deployment": 7705,
      "stakes": 7706,
      "bombs": 7707,
      "habitable": 7708,
      "infection": 7709,
      "bobby": 7710,
      "attribute": 7711,
      "adopted": 7712,
      "cheese": 7713,
      "\"'": 7714,
      "batt": 7715,
      "cue": 7716,
      "fau": 7717,
      "glu": 7718,
      "pess": 7719,
      "ining": 7720,
      "recover": 7721,
      "replaced": 7722,
      "dol": 7723,
      "dean": 7724,
      "rig": 7725,
      "convey": 7726,
      "exceed": 7727,
      "composition": 7728,
      "studi": 7729,
      "disorder": 7730,
      "implies": 7731,
      "compens": 7732,
      "presidents": 7733,
      "intelligences": 7734,
      "scientifically": 7735,
      "socialist": 7736,
      "dense": 7737,
      "worthwhile": 7738,
      "posted": 7739,
      "wrestler": 7740,
      "cryptocurrencies": 7741,
      "detector": 7742,
      "smoking": 7743,
      "continuum": 7744,
      "glasses": 7745,
      "sexy": 7746,
      "hypotheses": 7747,
      "associate": 7748,
      "penrose": 7749,
      "mutual": 7750,
      "heroic": 7751,
      "clarity": 7752,
      "appearance": 7753,
      "embracing": 7754,
      "regimes": 7755,
      "intentions": 7756,
      "fleet": 7757,
      "zeros": 7758,
      "satisfy": 7759,
      "chimps": 7760,
      "ritual": 7761,
      "heuristic": 7762,
      "tweets": 7763,
      "aristotle": 7764,
      "stellar": 7765,
      "detach": 7766,
      "hollywood": 7767,
      "pessim": 7768,
      "cous": 7769,
      "flaw": 7770,
      "knight": 7771,
      "khan": 7772,
      "anze": 7773,
      "atlas": 7774,
      "rewards": 7775,
      "ony": 7776,
      "bezos": 7777,
      "assed": 7778,
      "arest": 7779,
      "chi": 7780,
      "pecu": 7781,
      "ril": 7782,
      "rian": 7783,
      "heed": 7784,
      "poison": 7785,
      "agend": 7786,
      "grind": 7787,
      "epigen": 7788,
      "opposition": 7789,
      "solvable": 7790,
      "chocolate": 7791,
      "duck": 7792,
      "struck": 7793,
      "structor": 7794,
      "superconducting": 7795,
      "transcri": 7796,
      "monster": 7797,
      "meaningless": 7798,
      "advances": 7799,
      "trusting": 7800,
      "drake": 7801,
      "films": 7802,
      "industries": 7803,
      "ioms": 7804,
      "2018": 7805,
      "continuing": 7806,
      "cratic": 7807,
      "hurting": 7808,
      "expressions": 7809,
      "recommendation": 7810,
      "symmetries": 7811,
      "soldier": 7812,
      "troops": 7813,
      "announced": 7814,
      "macro": 7815,
      "emphasis": 7816,
      "inevitably": 7817,
      "preparing": 7818,
      "chimpanze": 7819,
      "trend": 7820,
      "attracted": 7821,
      "comprehend": 7822,
      "inherit": 7823,
      "resilient": 7824,
      "houses": 7825,
      "peculiar": 7826,
      "ave": 7827,
      "bars": 7828,
      "cc": 7829,
      "diction": 7830,
      "drew": 7831,
      "frog": 7832,
      "gay": 7833,
      "huh": 7834,
      "tles": 7835,
      "ato": 7836,
      "atus": 7837,
      "enhan": 7838,
      "logo": 7839,
      "caut": 7840,
      "cil": 7841,
      "bolt": 7842,
      "gras": 7843,
      "ideally": 7844,
      "brick": 7845,
      "disappear": 7846,
      "downside": 7847,
      "viewer": 7848,
      "machin": 7849,
      "bases": 7850,
      "processors": 7851,
      "controller": 7852,
      "lingu": 7853,
      "specialization": 7854,
      "metabo": 7855,
      "heartbreaking": 7856,
      "worrying": 7857,
      "axioms": 7858,
      "locally": 7859,
      "sooner": 7860,
      "hopes": 7861,
      "independently": 7862,
      "victim": 7863,
      "victory": 7864,
      "streaming": 7865,
      "neighbors": 7866,
      "guts": 7867,
      "flourishing": 7868,
      "bayes": 7869,
      "perceptual": 7870,
      "permanent": 7871,
      "derivative": 7872,
      "conceiv": 7873,
      "semantics": 7874,
      "mimic": 7875,
      "och": 7876,
      "osa": 7877,
      "vague": 7878,
      "zheimer": 7879,
      "rev": 7880,
      "itating": 7881,
      "alloc": 7882,
      "alzheimer": 7883,
      "toy": 7884,
      "ensure": 7885,
      "youth": 7886,
      "beta": 7887,
      "lyn": 7888,
      "acknowled": 7889,
      "edit": 7890,
      "cow": 7891,
      "moons": 7892,
      "unpredictable": 7893,
      "cake": 7894,
      "caps": 7895,
      "contexts": 7896,
      "expo": 7897,
      "therape": 7898,
      "shout": 7899,
      "naked": 7900,
      "strate": 7901,
      "triple": 7902,
      "subconscious": 7903,
      "breed": 7904,
      "classification": 7905,
      "pathway": 7906,
      "pytorch": 7907,
      "clude": 7908,
      "pushes": 7909,
      "darkest": 7910,
      "rank": 7911,
      "challenged": 7912,
      "titan": 7913,
      "financially": 7914,
      "traditionally": 7915,
      "schro": 7916,
      "scott": 7917,
      "liberating": 7918,
      "suggests": 7919,
      "fantasy": 7920,
      "propagate": 7921,
      "regulations": 7922,
      "consistently": 7923,
      "translated": 7924,
      "tournaments": 7925,
      "intentionally": 7926,
      "tactics": 7927,
      "civilians": 7928,
      "injury": 7929,
      "pione": 7930,
      "mexico": 7931,
      "convolutional": 7932,
      "cynicism": 7933,
      "campaign": 7934,
      "therapeut": 7935,
      "27": 7936,
      "aid": 7937,
      "ires": 7938,
      "knu": 7939,
      "reo": 7940,
      "altern": 7941,
      "envision": 7942,
      "enforce": 7943,
      "staff": 7944,
      "defeat": 7945,
      "ghis": 7946,
      "forgive": 7947,
      "ife": 7948,
      "ifiable": 7949,
      "caffe": 7950,
      "canad": 7951,
      "conting": 7952,
      "sauna": 7953,
      "phr": 7954,
      "descartes": 7955,
      "cream": 7956,
      "ief": 7957,
      "aven": 7958,
      "setup": 7959,
      "grammar": 7960,
      "venus": 7961,
      "imaging": 7962,
      "cheat": 7963,
      "chamber": 7964,
      "brett": 7965,
      "gible": 7966,
      "hub": 7967,
      "waking": 7968,
      "foundational": 7969,
      "juries": 7970,
      "draft": 7971,
      "dropping": 7972,
      "weekend": 7973,
      "pulls": 7974,
      "interpreted": 7975,
      "analyzing": 7976,
      "prototype": 7977,
      "satisfied": 7978,
      "coaches": 7979,
      "girlfriend": 7980,
      "annoy": 7981,
      "lord": 7982,
      "populations": 7983,
      "punish": 7984,
      "desperately": 7985,
      "rhyth": 7986,
      "bottleneck": 7987,
      "simultaneously": 7988,
      "machinery": 7989,
      "awake": 7990,
      "cs": 7991,
      "mals": 7992,
      "nfts": 7993,
      "sn": 7994,
      "enix": 7995,
      "lier": 7996,
      "roles": 7997,
      "gel": 7998,
      "pole": 7999,
      "conject": 8000,
      "permission": 8001,
      "istically": 8002,
      "ouncing": 8003,
      "upgrade": 8004,
      "phili": 8005,
      "shall": 8006,
      "shine": 8007,
      "nasty": 8008,
      "impress": 8009,
      "gau": 8010,
      "tennis": 8011,
      "curves": 8012,
      "sessions": 8013,
      "aria": 8014,
      "messed": 8015,
      "freely": 8016,
      "storytelling": 8017,
      "ponder": 8018,
      "buildings": 8019,
      "pier": 8020,
      "incremental": 8021,
      "phoenix": 8022,
      "defending": 8023,
      "vertical": 8024,
      "decides": 8025,
      "squad": 8026,
      "grandmother": 8027,
      "allevi": 8028,
      "austral": 8029,
      "liberty": 8030,
      "straightforward": 8031,
      "fountain": 8032,
      "contains": 8033,
      "tuned": 8034,
      "threads": 8035,
      "jung": 8036,
      "disappointed": 8037,
      "fission": 8038,
      "thermodynamics": 8039,
      "luxury": 8040,
      "probabilistic": 8041,
      "miserable": 8042,
      "schroding": 8043,
      "bun": 8044,
      "dd": 8045,
      "kis": 8046,
      "sir": 8047,
      "ona": 8048,
      "acid": 8049,
      "rod": 8050,
      "delive": 8051,
      "entangle": 8052,
      "fortran": 8053,
      "heres": 8054,
      "unde": 8055,
      "uncertain": 8056,
      "fered": 8057,
      "ulting": 8058,
      "evident": 8059,
      "divor": 8060,
      "compar": 8061,
      "interestingly": 8062,
      "marvin": 8063,
      "serge": 8064,
      "august": 8065,
      "producer": 8066,
      "supervision": 8067,
      "mont": 8068,
      "huber": 8069,
      "handed": 8070,
      "musical": 8071,
      "craz": 8072,
      "politician": 8073,
      "profile": 8074,
      "literal": 8075,
      "borrow": 8076,
      "speaker": 8077,
      "banking": 8078,
      "marketplace": 8079,
      "frontal": 8080,
      "horses": 8081,
      "radically": 8082,
      "dinosa": 8083,
      "consideration": 8084,
      "improvements": 8085,
      "striving": 8086,
      "syntax": 8087,
      "itudes": 8088,
      "detecting": 8089,
      "lockheed": 8090,
      "buddy": 8091,
      "subjects": 8092,
      "parallels": 8093,
      "oceans": 8094,
      "branches": 8095,
      "peaceful": 8096,
      "frequently": 8097,
      "promised": 8098,
      "millise": 8099,
      "speculation": 8100,
      "approximation": 8101,
      "rabbit": 8102,
      "sponsored": 8103,
      "slipper": 8104,
      "topology": 8105,
      "extraterrestrial": 8106,
      "schrodinger": 8107,
      "aaron": 8108,
      "bc": 8109,
      "jong": 8110,
      "juni": 8111,
      "lw": 8112,
      "tion": 8113,
      "yang": 8114,
      "republic": 8115,
      "ongoing": 8116,
      "encoded": 8117,
      "arct": 8118,
      "lian": 8119,
      "doz": 8120,
      "utical": 8121,
      "abys": 8122,
      "outbreak": 8123,
      "unes": 8124,
      "wash": 8125,
      "proton": 8126,
      "suite": 8127,
      "bol": 8128,
      "qubits": 8129,
      "updating": 8130,
      "agra": 8131,
      "gues": 8132,
      "izable": 8133,
      "diver": 8134,
      "diverse": 8135,
      "scipy": 8136,
      "formulate": 8137,
      "shoulders": 8138,
      "betterhelp": 8139,
      "etc": 8140,
      "basel": 8141,
      "mentioning": 8142,
      "brex": 8143,
      "heading": 8144,
      "hugely": 8145,
      "individually": 8146,
      "approval": 8147,
      "quantitative": 8148,
      "confusion": 8149,
      "landed": 8150,
      "criteria": 8151,
      "tues": 8152,
      "client": 8153,
      "gradual": 8154,
      "devast": 8155,
      "neuroscientists": 8156,
      "sightings": 8157,
      "fortune": 8158,
      "2013": 8159,
      "influential": 8160,
      "capturing": 8161,
      "predicates": 8162,
      "maximizing": 8163,
      "champions": 8164,
      "taxes": 8165,
      "corporation": 8166,
      "karl": 8167,
      "assignment": 8168,
      "substanti": 8169,
      "losses": 8170,
      "aspir": 8171,
      "manipulating": 8172,
      "assumed": 8173,
      "mammals": 8174,
      "deliberate": 8175,
      "absence": 8176,
      "knee": 8177,
      "garden": 8178,
      "feasible": 8179,
      "fauci": 8180,
      "caffeine": 8181,
      "slippery": 8182,
      "gif": 8183,
      "pars": 8184,
      "yard": 8185,
      "injuries": 8186,
      "replay": 8187,
      "tol": 8188,
      "hacked": 8189,
      "doable": 8190,
      "deals": 8191,
      "delight": 8192,
      "hest": 8193,
      "moz": 8194,
      "tear": 8195,
      "tip": 8196,
      "poster": 8197,
      "terribly": 8198,
      "excel": 8199,
      "blew": 8200,
      "bleed": 8201,
      "goodbye": 8202,
      "prev": 8203,
      "firing": 8204,
      "overly": 8205,
      "stomach": 8206,
      "stopping": 8207,
      "comparing": 8208,
      "mann": 8209,
      "marry": 8210,
      "offensive": 8211,
      "instances": 8212,
      "misinformation": 8213,
      "signature": 8214,
      "harmon": 8215,
      "angled": 8216,
      "denial": 8217,
      "variability": 8218,
      "legend": 8219,
      "latter": 8220,
      "morally": 8221,
      "critics": 8222,
      "continent": 8223,
      "digging": 8224,
      "keynes": 8225,
      "banned": 8226,
      "practicing": 8227,
      "flowing": 8228,
      "appeal": 8229,
      "darker": 8230,
      "golden": 8231,
      "2009": 8232,
      "visualization": 8233,
      "kernel": 8234,
      "innovate": 8235,
      "beaten": 8236,
      "gained": 8237,
      "detected": 8238,
      "panic": 8239,
      "reported": 8240,
      "copper": 8241,
      "suggesting": 8242,
      "racial": 8243,
      "switching": 8244,
      "bullet": 8245,
      "smartest": 8246,
      "exercis": 8247,
      "gaps": 8248,
      "madness": 8249,
      "skepticism": 8250,
      "electromagnetic": 8251,
      "authenticity": 8252,
      "asympto": 8253,
      "rejected": 8254,
      "satellite": 8255,
      "gathering": 8256,
      "suspicious": 8257,
      "volatility": 8258,
      "innate": 8259,
      "fascism": 8260,
      "delivered": 8261,
      "48": 8262,
      "bj": 8263,
      "egy": 8264,
      "fdr": 8265,
      "gments": 8266,
      "mare": 8267,
      "ologically": 8268,
      "tent": 8269,
      "vors": 8270,
      "yale": 8271,
      "independence": 8272,
      "retired": 8273,
      "retire": 8274,
      "enn": 8275,
      "enna": 8276,
      "envelo": 8277,
      "doms": 8278,
      "rob": 8279,
      "delete": 8280,
      "unfair": 8281,
      "fet": 8282,
      "fears": 8283,
      "tile": 8284,
      "neat": 8285,
      "confirm": 8286,
      "perme": 8287,
      "bore": 8288,
      "phar": 8289,
      "intri": 8290,
      "distrust": 8291,
      "impression": 8292,
      "stocha": 8293,
      "stocks": 8294,
      "pressures": 8295,
      "mari": 8296,
      "earn": 8297,
      "mini": 8298,
      "ictions": 8299,
      "biases": 8300,
      "warning": 8301,
      "traveled": 8302,
      "shocked": 8303,
      "nerve": 8304,
      "steering": 8305,
      "safely": 8306,
      "inkling": 8307,
      "starvation": 8308,
      "characteristic": 8309,
      "automatic": 8310,
      "fathers": 8311,
      "flame": 8312,
      "occurring": 8313,
      "transformers": 8314,
      "acquis": 8315,
      "tunnel": 8316,
      "intentional": 8317,
      "dedicated": 8318,
      "swimming": 8319,
      "warrior": 8320,
      "elder": 8321,
      "exoplanets": 8322,
      "pseudo": 8323,
      "agenda": 8324,
      "gauge": 8325,
      "dozens": 8326,
      "baseline": 8327,
      "bac": 8328,
      "dump": 8329,
      "ios": 8330,
      "von": 8331,
      "inverse": 8332,
      "incompetence": 8333,
      "outrage": 8334,
      "chasing": 8335,
      "sometime": 8336,
      "tide": 8337,
      "spy": 8338,
      "dile": 8339,
      "fog": 8340,
      "preval": 8341,
      "calories": 8342,
      "bike": 8343,
      "afternoon": 8344,
      "biologically": 8345,
      "sively": 8346,
      "fastest": 8347,
      "foundations": 8348,
      "approved": 8349,
      "pays": 8350,
      "voy": 8351,
      "fermat": 8352,
      "interacted": 8353,
      "sadly": 8354,
      "willingness": 8355,
      "recommendations": 8356,
      "braz": 8357,
      "reports": 8358,
      "priorit": 8359,
      "enabled": 8360,
      "propagation": 8361,
      "polyno": 8362,
      "hackers": 8363,
      "attempts": 8364,
      "criminals": 8365,
      "empirically": 8366,
      "crowds": 8367,
      "canceled": 8368,
      "transistor": 8369,
      "concentration": 8370,
      "slope": 8371,
      "princeton": 8372,
      "billionaire": 8373,
      "arrogance": 8374,
      "astronauts": 8375,
      "steady": 8376,
      "studio": 8377,
      "junior": 8378,
      "stochastic": 8379,
      "lately": 8380,
      "mial": 8381,
      "nan": 8382,
      "prest": 8383,
      "incorporate": 8384,
      "atl": 8385,
      "resolved": 8386,
      "endo": 8387,
      "offered": 8388,
      "seal": 8389,
      "entering": 8390,
      "pel": 8391,
      "iff": 8392,
      "amor": 8393,
      "modest": 8394,
      "unhappy": 8395,
      "unlimited": 8396,
      "unlock": 8397,
      "tible": 8398,
      "pops": 8399,
      "indu": 8400,
      "trapped": 8401,
      "ulated": 8402,
      "comma": 8403,
      "impose": 8404,
      "emper": 8405,
      "syria": 8406,
      "digest": 8407,
      "divine": 8408,
      "standup": 8409,
      "overnight": 8410,
      "shoulder": 8411,
      "claimed": 8412,
      "prescri": 8413,
      "cents": 8414,
      "contag": 8415,
      "assass": 8416,
      "tenure": 8417,
      "serves": 8418,
      "corre": 8419,
      "smalle": 8420,
      "surge": 8421,
      "missible": 8422,
      "opencog": 8423,
      "substrate": 8424,
      "functionality": 8425,
      "hype": 8426,
      "drone": 8427,
      "pilots": 8428,
      "banana": 8429,
      "nightmare": 8430,
      "rings": 8431,
      "theorems": 8432,
      "revolutions": 8433,
      "causation": 8434,
      "laden": 8435,
      "contributing": 8436,
      "qualified": 8437,
      "regulated": 8438,
      "regulators": 8439,
      "satisfaction": 8440,
      "colonize": 8441,
      "revealed": 8442,
      "halluc": 8443,
      "bowl": 8444,
      "evaluation": 8445,
      "savings": 8446,
      "minority": 8447,
      "nuts": 8448,
      "cruelty": 8449,
      "divided": 8450,
      "zucker": 8451,
      "timescale": 8452,
      "knife": 8453,
      "pharmace": 8454,
      "cortical": 8455,
      "libertarian": 8456,
      "ivermect": 8457,
      "abyss": 8458,
      "agraph": 8459,
      "polynomial": 8460,
      "smallest": 8461,
      "ivermectin": 8462,
      "26": 8463,
      "bies": 8464,
      "bump": 8465,
      "ect": 8466,
      "flee": 8467,
      "kitch": 8468,
      "nist": 8469,
      "ya": 8470,
      "yield": 8471,
      "rethink": 8472,
      "recon": 8473,
      "islam": 8474,
      "encry": 8475,
      "encoding": 8476,
      "lion": 8477,
      "unsupervised": 8478,
      "conferences": 8479,
      "prox": 8480,
      "worm": 8481,
      "exhibit": 8482,
      "updated": 8483,
      "strangers": 8484,
      "diam": 8485,
      "ptsd": 8486,
      "bitter": 8487,
      "pray": 8488,
      "implied": 8489,
      "compile": 8490,
      "cla": 8491,
      "jealous": 8492,
      "entials": 8493,
      "etary": 8494,
      "trium": 8495,
      "carb": 8496,
      "carto": 8497,
      "framing": 8498,
      "transformed": 8499,
      "sophia": 8500,
      "shame": 8501,
      "patent": 8502,
      "patch": 8503,
      "shoe": 8504,
      "blown": 8505,
      "steak": 8506,
      "nonprofit": 8507,
      "2004": 8508,
      "screens": 8509,
      "witness": 8510,
      "defensive": 8511,
      "applicable": 8512,
      "struggled": 8513,
      "objectively": 8514,
      "counterfactual": 8515,
      "uniquely": 8516,
      "synthetic": 8517,
      "synchron": 8518,
      "journalist": 8519,
      "dialect": 8520,
      "adapted": 8521,
      "anxious": 8522,
      "absurdity": 8523,
      "welfare": 8524,
      "sweat": 8525,
      "spanish": 8526,
      "seminal": 8527,
      "stimulus": 8528,
      "html": 8529,
      "exclusive": 8530,
      "catalyst": 8531,
      "critique": 8532,
      "retrospect": 8533,
      "proprietary": 8534,
      "squee": 8535,
      "battles": 8536,
      "cautious": 8537,
      "exposure": 8538,
      "underest": 8539,
      "zuckerberg": 8540,
      "pharmaceutical": 8541,
      "2d": 8542,
      "cd": 8543,
      "gaming": 8544,
      "kistan": 8545,
      "v2": 8546,
      "wage": 8547,
      "thick": 8548,
      "reco": 8549,
      "itunes": 8550,
      "ingen": 8551,
      "enab": 8552,
      "nope": 8553,
      "aret": 8554,
      "loch": 8555,
      "detri": 8556,
      "nearest": 8557,
      "protons": 8558,
      "anyways": 8559,
      "emit": 8560,
      "shru": 8561,
      "discrimin": 8562,
      "interrup": 8563,
      "april": 8564,
      "licate": 8565,
      "marvel": 8566,
      "surfaces": 8567,
      "italy": 8568,
      "crafts": 8569,
      "facto": 8570,
      "extinct": 8571,
      "complexities": 8572,
      "classroom": 8573,
      "multiverse": 8574,
      "voc": 8575,
      "dealt": 8576,
      "continually": 8577,
      "teaches": 8578,
      "psychologists": 8579,
      "homework": 8580,
      "merit": 8581,
      "costly": 8582,
      "brilliantly": 8583,
      "ethic": 8584,
      "integrating": 8585,
      "continuously": 8586,
      "locations": 8587,
      "trek": 8588,
      "nonetheless": 8589,
      "slam": 8590,
      "mutually": 8591,
      "lifes": 8592,
      "leaps": 8593,
      "consuming": 8594,
      "qualcomm": 8595,
      "sampling": 8596,
      "referred": 8597,
      "rigorously": 8598,
      "arrived": 8599,
      "hesit": 8600,
      "boost": 8601,
      "remotely": 8602,
      "officers": 8603,
      "mushrooms": 8604,
      "duty": 8605,
      "agriculture": 8606,
      "synaptic": 8607,
      "fountainhead": 8608,
      "kitchen": 8609,
      "86": 8610,
      "kant": 8611,
      "nlp": 8612,
      "sword": 8613,
      "tum": 8614,
      "tank": 8615,
      "votes": 8616,
      "zation": 8617,
      "zel": 8618,
      "inary": 8619,
      "incorrect": 8620,
      "ondri": 8621,
      "ordered": 8622,
      "lified": 8623,
      "librex": 8624,
      "behaving": 8625,
      "vest": 8626,
      "aband": 8627,
      "abun": 8628,
      "peers": 8629,
      "rival": 8630,
      "ami": 8631,
      "fere": 8632,
      "condem": 8633,
      "magaz": 8634,
      "exchanges": 8635,
      "query": 8636,
      "empathetic": 8637,
      "inequality": 8638,
      "bron": 8639,
      "brute": 8640,
      "dissip": 8641,
      "solver": 8642,
      "messi": 8643,
      "carlin": 8644,
      "superpower": 8645,
      "charity": 8646,
      "hung": 8647,
      "1930s": 8648,
      "profits": 8649,
      "communicated": 8650,
      "diment": 8651,
      "competed": 8652,
      "economically": 8653,
      "vacation": 8654,
      "chemist": 8655,
      "phases": 8656,
      "staring": 8657,
      "posting": 8658,
      "calculated": 8659,
      "soup": 8660,
      "authorities": 8661,
      "accountability": 8662,
      "psychopath": 8663,
      "invade": 8664,
      "collaborative": 8665,
      "kyle": 8666,
      "novels": 8667,
      "introducing": 8668,
      "validation": 8669,
      "symbols": 8670,
      "controversy": 8671,
      "replicating": 8672,
      "excellence": 8673,
      "mythology": 8674,
      "laser": 8675,
      "selfishness": 8676,
      "settlement": 8677,
      "diabet": 8678,
      "receptors": 8679,
      "bishop": 8680,
      "spont": 8681,
      "civilian": 8682,
      "blinkist": 8683,
      "legitimately": 8684,
      "methodology": 8685,
      "prosperity": 8686,
      "objectivism": 8687,
      "endeavor": 8688,
      "outsider": 8689,
      "canadian": 8690,
      "triumph": 8691,
      "abundance": 8692,
      "aero": 8693,
      "borders": 8694,
      "dil": 8695,
      "dice": 8696,
      "fate": 8697,
      "garet": 8698,
      "hatt": 8699,
      "owe": 8700,
      "overs": 8701,
      "sends": 8702,
      "ubi": 8703,
      "inks": 8704,
      "onin": 8705,
      "orche": 8706,
      "merely": 8707,
      "som": 8708,
      "hable": 8709,
      "rolled": 8710,
      "chief": 8711,
      "ceiling": 8712,
      "contemporary": 8713,
      "proceed": 8714,
      "mao": 8715,
      "upside": 8716,
      "spheres": 8717,
      "stranger": 8718,
      "evening": 8719,
      "disagreements": 8720,
      "prem": 8721,
      "interstellar": 8722,
      "opard": 8723,
      "lovely": 8724,
      "computable": 8725,
      "manhatt": 8726,
      "00s": 8727,
      "vessel": 8728,
      "offense": 8729,
      "sert": 8730,
      "curv": 8731,
      "instanti": 8732,
      "coln": 8733,
      "paragraph": 8734,
      "mongo": 8735,
      "checked": 8736,
      "fires": 8737,
      "quantify": 8738,
      "organizing": 8739,
      "pathy": 8740,
      "artificially": 8741,
      "experimentation": 8742,
      "lincoln": 8743,
      "cryptography": 8744,
      "spoon": 8745,
      "grandma": 8746,
      "weaker": 8747,
      "simulator": 8748,
      "gains": 8749,
      "episte": 8750,
      "tracks": 8751,
      "slide": 8752,
      "cosmological": 8753,
      "acceleration": 8754,
      "hacker": 8755,
      "participating": 8756,
      "affir": 8757,
      "influenza": 8758,
      "amplif": 8759,
      "diagnosis": 8760,
      "interpreting": 8761,
      "loyalty": 8762,
      "wrapped": 8763,
      "configuration": 8764,
      "membrane": 8765,
      "conjecture": 8766,
      "milliseconds": 8767,
      "manhattan": 8768,
      "29": 8769,
      "32": 8770,
      "600": 8771,
      "aha": 8772,
      "aqu": 8773,
      "bable": 8774,
      "pson": 8775,
      "sab": 8776,
      "santa": 8777,
      "tweak": 8778,
      "vod": 8779,
      "xi": 8780,
      "thub": 8781,
      "inated": 8782,
      "inhabit": 8783,
      "inhibit": 8784,
      "iteness": 8785,
      "nother": 8786,
      "metry": 8787,
      "verbal": 8788,
      "febr": 8789,
      "teeth": 8790,
      "promo": 8791,
      "yellow": 8792,
      "msky": 8793,
      "contents": 8794,
      "chomsky": 8795,
      "akin": 8796,
      "appar": 8797,
      "carn": 8798,
      "mitoch": 8799,
      "herself": 8800,
      "subsid": 8801,
      "github": 8802,
      "famine": 8803,
      "facil": 8804,
      "hyen": 8805,
      "vocab": 8806,
      "destination": 8807,
      "clips": 8808,
      "halfway": 8809,
      "recipe": 8810,
      "wrestlers": 8811,
      "feeds": 8812,
      "observers": 8813,
      "2011": 8814,
      "tables": 8815,
      "agging": 8816,
      "strive": 8817,
      "nearby": 8818,
      "threatening": 8819,
      "jumped": 8820,
      "hypothet": 8821,
      "180": 8822,
      "collaborators": 8823,
      "determines": 8824,
      "dominance": 8825,
      "conditional": 8826,
      "rationality": 8827,
      "crispr": 8828,
      "freud": 8829,
      "geopolitical": 8830,
      "geopolitics": 8831,
      "birthday": 8832,
      "promises": 8833,
      "intuitively": 8834,
      "hospitals": 8835,
      "investigation": 8836,
      "clusters": 8837,
      "crossed": 8838,
      "catastrophe": 8839,
      "trends": 8840,
      "memorable": 8841,
      "hawking": 8842,
      "decline": 8843,
      "shelf": 8844,
      "horrific": 8845,
      "traumatic": 8846,
      "bayesian": 8847,
      "australia": 8848,
      "huberman": 8849,
      "pharma": 8850,
      "intrigu": 8851,
      "acquisition": 8852,
      "contagious": 8853,
      "abandon": 8854,
      "february": 8855,
      "mitochondri": 8856,
      "gps": 8857,
      "ias": 8858,
      "jury": 8859,
      "lists": 8860,
      "mck": 8861,
      "macy": 8862,
      "ove": 8863,
      "lege": 8864,
      "meg": 8865,
      "sep": 8866,
      "dots": 8867,
      "coer": 8868,
      "ghost": 8869,
      "amino": 8870,
      "gear": 8871,
      "idio": 8872,
      "tering": 8873,
      "irreducibility": 8874,
      "imitation": 8875,
      "suits": 8876,
      "cigaret": 8877,
      "wheels": 8878,
      "sagan": 8879,
      "illness": 8880,
      "stuart": 8881,
      "genghis": 8882,
      "rail": 8883,
      "apor": 8884,
      "stores": 8885,
      "clone": 8886,
      "finiteness": 8887,
      "pressing": 8888,
      "cracies": 8889,
      "2022": 8890,
      "superf": 8891,
      "scalability": 8892,
      "broker": 8893,
      "charges": 8894,
      "1960s": 8895,
      "textbooks": 8896,
      "hitch": 8897,
      "northern": 8898,
      "latency": 8899,
      "limitation": 8900,
      "roomba": 8901,
      "burned": 8902,
      "beats": 8903,
      "defen": 8904,
      "ukrainians": 8905,
      "richest": 8906,
      "criticisms": 8907,
      "separation": 8908,
      "roller": 8909,
      "committing": 8910,
      "surprisingly": 8911,
      "dominated": 8912,
      "succeeded": 8913,
      "targeted": 8914,
      "mount": 8915,
      "gripping": 8916,
      "accomplishments": 8917,
      "arbitrarily": 8918,
      "mountains": 8919,
      "ignorant": 8920,
      "theorist": 8921,
      "corrupts": 8922,
      "encouraging": 8923,
      "contempl": 8924,
      "coincidence": 8925,
      "declaration": 8926,
      "noisy": 8927,
      "metabolic": 8928,
      "dinosaurs": 8929,
      "envelope": 8930,
      "aer": 8931,
      "backing": 8932,
      "dup": 8933,
      "dash": 8934,
      "ec": 8935,
      "jumps": 8936,
      "ooh": 8937,
      "rhe": 8938,
      "rated": 8939,
      "wound": 8940,
      "wings": 8941,
      "zar": 8942,
      "toe": 8943,
      "league": 8944,
      "arab": 8945,
      "lica": 8946,
      "roys": 8947,
      "versa": 8948,
      "coole": 8949,
      "entered": 8950,
      "wil": 8951,
      "mob": 8952,
      "motors": 8953,
      "unstable": 8954,
      "confin": 8955,
      "probe": 8956,
      "exit": 8957,
      "ading": 8958,
      "urance": 8959,
      "updates": 8960,
      "kingdom": 8961,
      "ody": 8962,
      "shield": 8963,
      "endurance": 8964,
      "ables": 8965,
      "nakam": 8966,
      "guido": 8967,
      "takedown": 8968,
      "desir": 8969,
      "questioning": 8970,
      "miners": 8971,
      "instantly": 8972,
      "crimes": 8973,
      "placebo": 8974,
      "submission": 8975,
      "guessing": 8976,
      "winners": 8977,
      "medio": 8978,
      "paypal": 8979,
      "nonstop": 8980,
      "reliability": 8981,
      "destroys": 8982,
      "hearts": 8983,
      "risky": 8984,
      "detectors": 8985,
      "belts": 8986,
      "vietnam": 8987,
      "separated": 8988,
      "limbic": 8989,
      "sticks": 8990,
      "profoundly": 8991,
      "relevance": 8992,
      "raises": 8993,
      "demands": 8994,
      "wasting": 8995,
      "deserves": 8996,
      "replication": 8997,
      "coordination": 8998,
      "orientation": 8999,
      "kilos": 9000,
      "intimid": 9001,
      "thompson": 9002,
      "manipulated": 9003,
      "psychiatry": 9004,
      "jersey": 9005,
      "receptor": 9006,
      "eggs": 9007,
      "gratitude": 9008,
      "privileged": 9009,
      "privilege": 9010,
      "perturbations": 9011,
      "dirty": 9012,
      "defeated": 9013,
      "footage": 9014,
      "decentralization": 9015,
      "adequate": 9016,
      "conceivable": 9017,
      "lifespan": 9018,
      "apparatus": 9019,
      "coolest": 9020,
      "85": 9021,
      "ether": 9022,
      "fence": 9023,
      "fide": 9024,
      "hoff": 9025,
      "jur": 9026,
      "swing": 9027,
      "treas": 9028,
      "tick": 9029,
      "anas": 9030,
      "reck": 9031,
      "returning": 9032,
      "nove": 9033,
      "secular": 9034,
      "selective": 9035,
      "beam": 9036,
      "betray": 9037,
      "entangled": 9038,
      "wiring": 9039,
      "chun": 9040,
      "forks": 9041,
      "goat": 9042,
      "moloch": 9043,
      "tears": 9044,
      "canon": 9045,
      "hooked": 9046,
      "confront": 9047,
      "usable": 9048,
      "diagram": 9049,
      "speare": 9050,
      "disorders": 9051,
      "formally": 9052,
      "interconnected": 9053,
      "lake": 9054,
      "crush": 9055,
      "pretending": 9056,
      "careers": 9057,
      "technologically": 9058,
      "predator": 9059,
      "scalable": 9060,
      "lasting": 9061,
      "shots": 9062,
      "quantity": 9063,
      "stereo": 9064,
      "dennis": 9065,
      "variations": 9066,
      "communications": 9067,
      "multiway": 9068,
      "holder": 9069,
      "fermi": 9070,
      "octo": 9071,
      "circul": 9072,
      "grades": 9073,
      "moderate": 9074,
      "neuroscientist": 9075,
      "integral": 9076,
      "combining": 9077,
      "oids": 9078,
      "titles": 9079,
      "filling": 9080,
      "requirements": 9081,
      "depressing": 9082,
      "spreads": 9083,
      "contributed": 9084,
      "modalities": 9085,
      "romanticize": 9086,
      "targeting": 9087,
      "contained": 9088,
      "branchial": 9089,
      "culturally": 9090,
      "spinning": 9091,
      "woods": 9092,
      "frustration": 9093,
      "pairs": 9094,
      "columbia": 9095,
      "sweep": 9096,
      "intimate": 9097,
      "shifts": 9098,
      "derived": 9099,
      "shakespeare": 9100,
      "helicop": 9101,
      "module": 9102,
      "modules": 9103,
      "creepy": 9104,
      "pipeline": 9105,
      "aesthetic": 9106,
      "collision": 9107,
      "alternate": 9108,
      "shrugged": 9109,
      "33": 9110,
      "bach": 9111,
[...]
